<pad>	0
<unk>	0
<s>	0
</s>	0
▁,	-0
▁的	-1
▁。	-2
▁中	-3
▁是	-4
▁和	-5
▁国	-6
▁在	-7
▁一	-8
▁、	-9
▁了	-10
▁中国	-11
▁不	-12
▁人	-13
▁发	-14
▁对	-15
▁“	-16
▁”	-17
▁有	-18
▁美	-19
▁这	-20
▁政	-21
▁经	-22
▁发展	-23
▁大	-24
▁我	-25
▁两	-26
▁要	-27
▁关	-28
▁上	-29
▁个	-30
▁他	-31
▁台	-32
▁重	-33
▁地	-34
▁新	-35
▁与	-36
▁进	-37
▁美国	-38
▁说	-39
▁会	-40
▁经济	-41
▁问	-42
▁为	-43
▁也	-44
▁年	-45
▁实	-46
▁以	-47
▁关系	-48
▁工	-49
▁将	-50
▁问题	-51
▁国家	-52
▁全	-53
▁就	-54
▁台湾	-55
▁作	-56
▁世	-57
▁各	-58
▁日	-59
▁建	-60
▁主	-61
▁领	-62
▁成	-63
▁加	-64
▁人民	-65
▁社	-66
▁合	-67
▁我们	-68
▁能	-69
▁军	-70
▁社会	-71
▁开	-72
▁提	-73
▁同	-74
▁方	-75
▁表	-76
▁政府	-77
▁自	-78
▁战	-79
▁之	-80
▁事	-81
▁时	-82
▁‘	-83
▁可	-84
▁1	-85
▁工作	-86
▁共	-87
▁’	-88
▁已	-89
▁民	-90
▁高	-91
▁党	-92
▁来	-93
▁总	-94
▁还	-95
▁重要	-96
▁合作	-97
▁多	-98
▁部	-99
▁出	-100
▁改	-101
▁当	-102
▁法	-103
▁都	-104
▁保	-105
▁现	-106
▁三	-107
▁次	-108
▁基	-109
▁其	-110
▁今	-111
▁指	-112
▁但	-113
▁公	-114
▁最	-115
主义	-116
▁外	-117
▁下	-118
▁代	-119
▁并	-120
▁而	-121
▁应	-122
▁认	-123
▁强	-124
▁:	-125
▁正	-126
▁制	-127
▁所	-128
▁从	-129
▁此	-130
▁领导	-131
▁表示	-132
▁建设	-133
▁分	-134
▁反	-135
▁更	-136
▁国际	-137
▁必	-138
▁第	-139
▁机	-140
▁进行	-141
▁世界	-142
▁到	-143
▁增	-144
▁坚	-145
▁前	-146
▁相	-147
▁代表	-148
▁种	-149
▁原	-150
▁企	-151
▁李	-152
▁组	-153
▁等	-154
▁双	-155
▁生	-156
▁后	-157
▁推	-158
▁安	-159
▁江	-160
▁行	-161
▁政治	-162
▁历	-163
▁2	-164
▁十	-165
▁目	-166
▁西	-167
▁访	-168
▁深	-169
▁地区	-170
▁教	-171
▁企业	-172
▁如	-173
▁统	-174
▁政策	-175
▁使	-176
▁条	-177
▁方面	-178
▁内	-179
▁利	-180
▁交	-181
▁加强	-182
▁联	-183
▁意	-184
▁北	-185
▁和平	-186
▁支	-187
▁科	-188
▁友	-189
▁特	-190
▁信	-191
▁因	-192
▁市	-193
▁月	-194
▁结	-195
▁形	-196
▁着	-197
▁解	-198
▁干	-199
▁过	-200
▁向	-201
▁看	-202
▁通	-203
▁思	-204
▁把	-205
▁任	-206
▁农	-207
▁只	-208
▁文	-209
▁历史	-210
▁我国	-211
▁得	-212
▁没	-213
▁资	-214
▁会议	-215
▁完	-216
泽民	-217
▁实现	-218
▁江泽民	-219
▁规	-220
▁组织	-221
▁指出	-222
▁改革	-223
▁俄	-224
▁日本	-225
▁本	-226
▁好	-227
▁世纪	-228
▁必须	-229
▁统一	-230
▁岸	-231
▁无	-232
▁举	-233
▁稳	-234
▁共同	-235
▁认为	-236
▁参	-237
▁双方	-238
▁没有	-239
▁报	-240
▁根	-241
▁活	-242
▁记	-243
▁技	-244
00	-245
▁教育	-246
▁项	-247
▁技术	-248
▁二	-249
▁取	-250
▁海	-251
▁继	-252
▁市场	-253
▁稳定	-254
▁由	-255
▁原则	-256
▁战略	-257
▁决	-258
▁首	-259
▁军事	-260
▁支持	-261
▁友好	-262
▁民族	-263
▁思想	-264
▁(	-265
一步	-266
▁进一步	-267
▁很	-268
▁朝	-269
▁电	-270
▁他们	-271
▁体	-272
▁一些	-273
▁访问	-274
▁计	-275
▁金	-276
▁要求	-277
▁记者	-278
▁严	-279
▁做	-280
▁华	-281
▁打	-282
▁去	-283
▁情	-284
▁调	-285
▁委	-286
▁安全	-287
▁强调	-288
▁有关	-289
▁努	-290
▁布	-291
▁广	-292
▁努力	-293
▁学	-294
▁管	-295
▁继续	-296
▁联合	-297
▁产	-298
▁非	-299
▁北京	-300
▁坚持	-301
▁《	-302
▁》	-303
▁投	-304
▁理	-305
▁防	-306
▁解决	-307
▁具	-308
▁希	-309
▁已经	-310
▁谈	-311
▁活动	-312
▁领导人	-313
▁积	-314
▁?	-315
▁影	-316
▁立	-317
▁不断	-318
▁提出	-319
▁五	-320
▁创	-321
▁起	-322
▁近	-323
▁协	-324
▁导	-325
▁未	-326
▁达	-327
▁19	-328
▁可以	-329
▁总统	-330
▁自己	-331
▁研	-332
▁面	-333
▁利益	-334
▁委员	-335
▁希望	-336
▁影响	-337
▁朱	-338
▁需	-339
▁管理	-340
▁力	-341
▁武	-342
▁讲	-343
▁基础	-344
▁专	-345
▁接	-346
▁于	-347
▁亚	-348
▁维	-349
▁主席	-350
▁干部	-351
▁积极	-352
▁及	-353
▁计划	-354
▁)	-355
▁小	-356
▁同时	-357
▁这个	-358
▁水	-359
▁目前	-360
▁社会主义	-361
▁取得	-362
▁现代	-363
▁通过	-364
▁变	-365
▁处	-366
▁环	-367
▁采	-368
▁今年	-369
▁作为	-370
▁充	-371
▁再	-372
▁又	-373
▁系	-374
▁中央	-375
▁平	-376
▁回	-377
▁提高	-378
▁这些	-379
▁依	-380
▁举行	-381
▁建立	-382
▁感	-383
▁明	-384
▁精	-385
▁集	-386
▁今天	-387
▁情况	-388
▁领域	-389
▁受	-390
▁被	-391
▁人权	-392
▁根本	-393
▁监	-394
▁财	-395
▁制度	-396
▁才	-397
▁祖	-398
▁至	-399
▁法轮	-400
▁祖国	-401
▁议	-402
▁贸	-403
▁香	-404
▁信息	-405
▁大陆	-406
▁法轮功	-407
▁承	-408
▁给	-409
▁贸易	-410
▁促	-411
▁飞	-412
▁导弹	-413
▁宣	-414
▁扩	-415
▁期	-416
▁开发	-417
▁成为	-418
▁名	-419
▁推动	-420
▁环境	-421
▁3	-422
▁转	-423
▁主要	-424
▁香港	-425
▁比	-426
▁长	-427
▁作用	-428
▁据	-429
▁实施	-430
▁布什	-431
▁先	-432
▁当局	-433
▁位	-434
▁印	-435
▁5	-436
▁巴	-437
▁愿	-438
▁增长	-439
▁外交	-440
▁几	-441
▁普	-442
▁马	-443
▁科学	-444
▁部门	-445
▁互	-446
▁权	-447
▁欧	-448
▁发生	-449
▁研究	-450
▁维护	-451
▁4	-452
▁用	-453
▁重视	-454
▁优	-455
▁预	-456
▁以来	-457
▁促进	-458
▁如果	-459
▁战争	-460
▁东	-461
▁传	-462
▁越	-463
▁作出	-464
▁全球	-465
▁法律	-466
▁现在	-467
▁西部	-468
▁势	-469
▁天	-470
▁随	-471
▁基本	-472
▁生产	-473
▁官	-474
▁去年	-475
▁可能	-476
▁文化	-477
▁第一	-478
▁需要	-479
▁引	-480
▁核	-481
▁形势	-482
▁扩大	-483
▁曾	-484
▁空	-485
▁负	-486
▁陈	-487
▁难	-488
▁存	-489
▁手	-490
▁消	-491
▁走	-492
▁那	-493
▁措	-494
▁演	-495
▁直	-496
▁许	-497
▁民主	-498
▁克	-499
▁带	-500
▁竞	-501
▁选	-502
▁充分	-503
▁措施	-504
▁精神	-505
▁重大	-506
▁199	-507
▁现代化	-508
▁南	-509
▁四	-510
▁常	-511
▁批	-512
▁群	-513
▁运	-514
▁投资	-515
▁提供	-516
▁武器	-517
▁之间	-518
▁保持	-519
▁具有	-520
▁反对	-521
▁条件	-522
罗斯	-523
▁任务	-524
▁决定	-525
▁朝鲜	-526
▁调整	-527
▁动	-528
▁收	-529
▁系统	-530
▁执	-531
▁确	-532
▁级	-533
▁落	-534
▁科技	-535
▁副	-536
▁真	-537
▁因此	-538
▁开放	-539
▁元	-540
▁办	-541
▁王	-542
▁知	-543
▁人员	-544
▁任何	-545
▁全面	-546
▁特别	-547
▁群众	-548
▁西藏	-549
▁联合国	-550
▁仍	-551
▁包	-552
▁周	-553
▁网	-554
▁保护	-555
▁采取	-556
▁或	-557
▁整	-558
▁职	-559
▁责	-560
▁阿	-561
▁军队	-562
▁力量	-563
▁监督	-564
▁俄罗斯	-565
▁审	-566
▁热	-567
▁紧	-568
▁交流	-569
▁修	-570
▁中共	-571
▁事业	-572
▁台独	-573
▁开展	-574
▁得到	-575
▁意见	-576
▁能力	-577
▁部分	-578
▁伊	-579
▁良	-580
▁一定	-581
▁了解	-582
▁事实	-583
▁公司	-584
▁立场	-585
▁金融	-586
▁团	-587
▁抓	-588
▁突	-589
▁该	-590
▁二十	-591
▁国防	-592
▁存在	-593
▁九	-594
▁单	-595
▁商	-596
▁它	-597
▁老	-598
▁设	-599
▁国民	-600
▁完全	-601
▁许多	-602
▁资源	-603
——	-604
▁局	-605
▁十分	-606
▁李鹏	-607
▁目标	-608
▁经贸	-609
▁准	-610
▁斗	-611
▁考	-612
▁道	-613
▁阶	-614
▁中方	-615
▁利用	-616
▁只有	-617
▁实践	-618
▁结构	-619
▁6	-620
▁危	-621
▁论	-622
▁事件	-623
▁人大	-624
▁但是	-625
▁体制	-626
▁谈判	-627
▁失	-628
▁包括	-629
▁应该	-630
▁开始	-631
▁成功	-632
▁责任	-633
▁这样	-634
▁尽	-635
▁分裂	-636
▁创新	-637
▁处理	-638
▁斗争	-639
▁理论	-640
▁行动	-641
▁规定	-642
▁家	-643
▁届	-644
▁英	-645
▁装	-646
▁保障	-647
▁出现	-648
▁加入	-649
▁当前	-650
▁未来	-651
▁进入	-652
▁7	-653
▁亿	-654
▁巨	-655
▁清	-656
▁严重	-657
▁中华	-658
▁主权	-659
▁加快	-660
▁发挥	-661
▁期间	-662
▁水平	-663
▁良好	-664
▁财政	-665
▁极	-666
▁观	-667
▁人士	-668
▁共产	-669
▁学习	-670
▁讲话	-671
▁城	-672
▁始	-673
▁标	-674
▁韩	-675
▁人们	-676
▁其他	-677
▁国务	-678
▁改善	-679
▁竞争	-680
▁高度	-681
▁你	-682
▁减	-683
▁搞	-684
▁欢	-685
邪教	-686
▁亚洲	-687
▁同志	-688
▁对话	-689
▁总理	-690
▁快	-691
▁持	-692
▁注	-693
▁省	-694
什么	-695
▁关于	-696
▁变化	-697
▁意义	-698
▁机关	-699
▁第二	-700
▁培	-701
▁态	-702
▁服	-703
▁造	-704
▁风	-705
▁10	-706
▁一九	-707
▁农业	-708
▁推进	-709
▁新闻	-710
▁机构	-711
▁深入	-712
▁表明	-713
▁邪教	-714
▁部队	-715
▁共产党	-716
▁即	-717
▁连	-718
▁不同	-719
▁参加	-720
▁地位	-721
▁工程	-722
▁由于	-723
▁认识	-724
▁8	-725
▁挑	-726
▁放	-727
▁独	-728
▁甚	-729
▁驻	-730
▁作战	-731
▁势力	-732
▁增加	-733
▁有利	-734
▁八	-735
▁声	-736
▁检	-737
▁致	-738
▁虽	-739
▁质	-740
林顿	-741
▁不仅	-742
▁人才	-743
▁发表	-744
▁实际	-745
▁对于	-746
▁应当	-747
▁正确	-748
▁生活	-749
▁六	-750
▁称	-751
▁评	-752
▁贯	-753
镕基	-754
▁今后	-755
▁会谈	-756
▁国内	-757
▁成果	-758
▁直接	-759
▁进程	-760
▁朱镕基	-761
▁亲	-762
▁半	-763
▁却	-764
▁心	-765
▁按	-766
▁显	-767
▁每	-768
▁警	-769
▁让	-770
▁证	-771
▁里	-772
▁一直	-773
▁之一	-774
▁创造	-775
▁十五	-776
▁大会	-777
▁始终	-778
▁官员	-779
▁欢迎	-780
▁美方	-781
▁克林顿	-782
▁入	-783
▁则	-784
▁想	-785
▁早	-786
▁适	-787
▁以及	-788
▁关键	-789
▁农村	-790
▁友谊	-791
▁坚决	-792
▁带来	-793
▁接受	-794
▁更加	-795
▁落实	-796
▁绝	-797
▁胡	-798
克思	-799
斯坦	-800
▁产业	-801
▁先进	-802
▁国有	-803
▁态度	-804
▁报告	-805
▁时期	-806
▁而且	-807
▁负责	-808
▁贯彻	-809
▁马克思	-810
▁冲	-811
▁宗	-812
▁贡	-813
▁人类	-814
▁农民	-815
▁成员	-816
▁报道	-817
▁时间	-818
▁有效	-819
▁正在	-820
▁装备	-821
▁贡献	-822
▁200	-823
▁健	-824
▁效	-825
委会	-826
▁上海	-827
▁会见	-828
▁印度	-829
▁巨大	-830
▁手段	-831
▁服务	-832
▁相互	-833
▁看到	-834
▁过去	-835
▁重点	-836
▁长期	-837
▁随着	-838
▁切	-839
▁复	-840
▁威	-841
▁张	-842
▁破	-843
▁素	-844
▁钱	-845
▁中心	-846
▁为了	-847
▁传统	-848
▁内容	-849
▁制定	-850
▁因为	-851
▁形式	-852
▁时代	-853
▁条约	-854
▁阶段	-855
▁陈水	-856
▁委员会	-857
md	-858
▁n	-859
▁初	-860
▁场	-861
▁尊	-862
▁符	-863
▁赞	-864
▁趋	-865
▁较	-866
▁违	-867
▁20	-868
▁一切	-869
▁专家	-870
▁什么	-871
▁共识	-872
▁准备	-873
▁地方	-874
▁所有	-875
▁方式	-876
▁方针	-877
▁甚至	-878
▁经营	-879
▁过程	-880
▁部署	-881
▁防御	-882
▁领土	-883
▁特别是	-884
▁陈水扁	-885
▁争	-886
▁逐	-887
书记	-888
▁产生	-889
▁依法	-890
▁协议	-891
▁发言	-892
▁完善	-893
▁所谓	-894
▁挑战	-895
▁符合	-896
▁第三	-897
▁结束	-898
▁能够	-899
▁质量	-900
▁资金	-901
▁进步	-902
▁部长	-903
▁马克思主义	-904
▁9	-905
▁另	-906
▁困	-907
▁步	-908
▁犯	-909
▁酞	-910
▁会晤	-911
▁保证	-912
▁其中	-913
▁参与	-914
▁受到	-915
▁李登	-916
▁网络	-917
▁美军	-918
▁侵	-919
▁数	-920
▁既	-921
▁航	-922
▁原因	-923
▁广大	-924
▁打击	-925
▁执行	-926
▁深刻	-927
▁经验	-928
▁行为	-929
▁认真	-930
▁面临	-931
▁nmd	-932
▁国务院	-933
▁李登辉	-934
▁满	-935
▁身	-936
▁青	-937
▁革	-938
▁——	-939
▁宣传	-940
▁对外	-941
▁成立	-942
▁承认	-943
▁根据	-944
▁美元	-945
▁全球化	-946
▁发展中	-947
▁占	-948
▁澳	-949
▁白	-950
▁百	-951
▁程	-952
▁获	-953
▁限	-954
▁主张	-955
▁交换	-956
▁修改	-957
▁出口	-958
▁因素	-959
▁完成	-960
▁平等	-961
▁方向	-962
▁机遇	-963
▁素质	-964
▁达成	-965
▁非常	-966
▁伙	-967
▁区	-968
▁某	-969
▁潜	-970
▁签	-971
▁繁	-972
▁言	-973
▁顺	-974
▁之后	-975
▁使用	-976
▁关注	-977
▁出席	-978
▁双边	-979
▁增强	-980
▁形成	-981
▁犯罪	-982
▁现实	-983
▁相信	-984
▁有利于	-985
▁七	-986
▁价	-987
▁冷	-988
▁少	-989
▁展	-990
▁探	-991
▁缺	-992
▁边	-993
▁间	-994
▁中东	-995
▁亚酞	-996
▁分子	-997
▁单位	-998
▁如何	-999
▁宗教	-1000
▁广泛	-1001
▁强烈	-1002
▁机制	-1003
▁知识	-1004
▁组成	-1005
▁行政	-1006
▁首脑	-1007
▁一九九	-1008
▁万	-1009
▁侦	-1010
▁模	-1011
▁气	-1012
▁治	-1013
▁然	-1014
▁股	-1015
▁远	-1016
▁交往	-1017
▁体现	-1018
▁共和	-1019
▁改变	-1020
▁新华	-1021
▁是否	-1022
▁表现	-1023
▁集团	-1024
▁面对	-1025
▁革命	-1026
▁飞行	-1027
▁代表团	-1028
▁召	-1029
▁奥	-1030
▁激	-1031
▁状	-1032
▁范	-1033
▁跨	-1034
▁霸	-1035
▁公开	-1036
▁力度	-1037
▁城市	-1038
▁实行	-1039
▁建议	-1040
▁明确	-1041
▁来自	-1042
▁经过	-1043
▁西方	-1044
▁解放	-1045
▁达到	-1046
▁造成	-1047
▁飞机	-1048
▁首先	-1049
▁新华社	-1050
▁低	-1051
▁司	-1052
▁她	-1053
▁定	-1054
▁怎	-1055
▁担	-1056
▁请	-1057
▁超	-1058
▁路	-1059
腐败	-1060
▁事务	-1061
▁伙伴	-1062
▁切实	-1063
▁困难	-1064
▁局势	-1065
▁感到	-1066
▁感谢	-1067
▁注意	-1068
▁深化	-1069
▁独立	-1070
▁结合	-1071
▁起来	-1072
▁近年	-1073
▁介	-1074
▁古	-1075
▁拥	-1076
▁派	-1077
▁爱	-1078
▁留	-1079
▁追	-1080
▁除	-1081
其琛	-1082
▁团结	-1083
▁威胁	-1084
▁工业	-1085
▁接触	-1086
▁明显	-1087
▁普京	-1088
▁普遍	-1089
▁最终	-1090
▁核心	-1091
▁此外	-1092
▁议会	-1093
▁适应	-1094
▁钱其琛	-1095
▁劳	-1096
▁德	-1097
▁拉	-1098
▁损	-1099
▁火	-1100
▁祝	-1101
拉克	-1102
锦涛	-1103
▁建交	-1104
▁必要	-1105
▁快速	-1106
▁权利	-1107
▁正常	-1108
▁正式	-1109
▁结果	-1110
▁证明	-1111
▁进展	-1112
▁胡锦涛	-1113
▁千	-1114
▁吴	-1115
▁唐	-1116
▁抵	-1117
▁纪	-1118
▁讨	-1119
▁遭	-1120
▁配	-1121
来越	-1122
▁健康	-1123
▁具体	-1124
▁加大	-1125
▁召开	-1126
▁合理	-1127
▁复杂	-1128
▁宣布	-1129
▁尊重	-1130
▁承诺	-1131
▁指挥	-1132
▁民众	-1133
▁然而	-1134
▁繁荣	-1135
▁给予	-1136
▁英国	-1137
▁趋势	-1138
▁委员长	-1139
▁常委会	-1140
▁越来越	-1141
▁令	-1142
▁停	-1143
▁媒	-1144
▁层	-1145
▁属	-1146
▁约	-1147
▁综	-1148
▁介绍	-1149
▁侦察	-1150
▁分析	-1151
▁同胞	-1152
▁坚定	-1153
▁大量	-1154
▁如此	-1155
▁引起	-1156
▁愿意	-1157
▁指导	-1158
▁收入	-1159
▁欧洲	-1160
▁范围	-1161
▁虽然	-1162
▁选择	-1163
▁压	-1164
▁土	-1165
▁客	-1166
▁差	-1167
▁透	-1168
▁银	-1169
▁一贯	-1170
▁不少	-1171
▁大学	-1172
▁媒体	-1173
▁按照	-1174
▁最高	-1175
▁特点	-1176
▁电子	-1177
▁目的	-1178
▁资本	-1179
▁难以	-1180
▁集中	-1181
▁韩国	-1182
▁!	-1183
▁何	-1184
▁山	-1185
▁性	-1186
▁神	-1187
▁税	-1188
▁见	-1189
▁退	-1190
字旁	-1191
▁不过	-1192
▁世贸	-1193
▁优势	-1194
▁做好	-1195
▁全体	-1196
▁关心	-1197
▁冷战	-1198
▁制造	-1199
▁半岛	-1200
▁只要	-1201
▁基层	-1202
▁持续	-1203
▁文明	-1204
▁海峡	-1205
▁演习	-1206
▁真正	-1207
▁系列	-1208
▁运用	-1209
▁还是	-1210
▁预算	-1211
字旁容	-1212
▁金字旁容	-1213
▁别	-1214
▁告	-1215
▁均	-1216
▁控	-1217
▁攻	-1218
▁涉	-1219
▁点	-1220
▁福	-1221
▁编	-1222
▁试	-1223
▁话	-1224
▁院	-1225
▁三通	-1226
▁上述	-1227
▁全国	-1228
▁再次	-1229
▁势头	-1230
▁危机	-1231
▁外资	-1232
▁年代	-1233
▁政协	-1234
▁最近	-1235
▁说明	-1236
▁高兴	-1237
▁高层	-1238
▁.	-1239
▁w	-1240
▁乌	-1241
▁便	-1242
▁允	-1243
▁听	-1244
▁呼	-1245
▁富	-1246
▁往	-1247
▁抗	-1248
▁敌	-1249
▁暴	-1250
▁案	-1251
▁离	-1252
▁遵	-1253
分之	-1254
洪志	-1255
▁12	-1256
▁个人	-1257
▁体系	-1258
▁允许	-1259
▁公安	-1260
▁培养	-1261
▁基地	-1262
▁外国	-1263
▁并不	-1264
▁比较	-1265
▁海军	-1266
▁澳门	-1267
▁理解	-1268
▁第四	-1269
▁道路	-1270
▁限制	-1271
▁顺利	-1272
▁李洪志	-1273
to	-1274
▁密	-1275
▁履	-1276
▁帮	-1277
▁构	-1278
▁石	-1279
▁舆	-1280
▁训	-1281
▁课	-1282
▁邓	-1283
▁21	-1284
▁50	-1285
▁党委	-1286
▁发达	-1287
▁周年	-1288
▁回答	-1289
▁少数	-1290
▁尽管	-1291
▁履行	-1292
▁干涉	-1293
▁投入	-1294
▁标准	-1295
▁状况	-1296
▁现象	-1297
▁破坏	-1298
▁程度	-1299
▁突出	-1300
▁综合	-1301
▁舆论	-1302
▁论坛	-1303
▁调查	-1304
▁重申	-1305
▁银行	-1306
▁项目	-1307
▁wto	-1308
▁;	-1309
▁业	-1310
▁予	-1311
▁伟	-1312
▁借	-1313
▁招	-1314
▁死	-1315
▁段	-1316
▁波	-1317
▁流	-1318
▁物	-1319
▁答	-1320
▁粮	-1321
▁艰	-1322
▁角	-1323
▁邀	-1324
主席	-1325
▁决策	-1326
▁对抗	-1327
▁帮助	-1328
▁必然	-1329
▁意识	-1330
▁批评	-1331
▁推行	-1332
▁新疆	-1333
▁有些	-1334
▁欧盟	-1335
▁空间	-1336
▁考虑	-1337
▁规划	-1338
▁规模	-1339
▁讨论	-1340
▁训练	-1341
▁走向	-1342
▁逐步	-1343
▁邀请	-1344
▁集体	-1345
▁———	-1346
▁外交部	-1347
▁总书记	-1348
▁丰	-1349
▁义	-1350
▁件	-1351
▁众	-1352
▁卡	-1353
▁命	-1354
▁奋	-1355
▁居	-1356
▁旅	-1357
▁沿	-1358
▁矛	-1359
▁短	-1360
▁舰	-1361
▁谋	-1362
▁贫	-1363
▁鲍	-1364
▁鼓	-1365
理会	-1366
▁一样	-1367
▁产品	-1368
▁以上	-1369
▁入世	-1370
▁分别	-1371
▁前提	-1372
▁增进	-1373
▁外长	-1374
▁大力	-1375
▁巴勒	-1376
▁很多	-1377
▁	-1378
,	-1379
的	-1380
。	-1381
国	-1382
中	-1383
一	-1384
是	-1385
和	-1386
在	-1387
人	-1388
、	-1389
有	-1390
了	-1391
会	-1392
发	-1393
不	-1394
要	-1395
大	-1396
对	-1397
作	-1398
民	-1399
为	-1400
政	-1401
美	-1402
“	-1403
”	-1404
经	-1405
展	-1406
关	-1407
年	-1408
这	-1409
进	-1410
行	-1411
主	-1412
方	-1413
出	-1414
个	-1415
上	-1416
重	-1417
实	-1418
来	-1419
我	-1420
地	-1421
两	-1422
以	-1423
新	-1424
他	-1425
问	-1426
全	-1427
力	-1428
台	-1429
家	-1430
成	-1431
部	-1432
系	-1433
们	-1434
合	-1435
法	-1436
表	-1437
同	-1438
与	-1439
说	-1440
现	-1441
事	-1442
到	-1443
加	-1444
日	-1445
业	-1446
军	-1447
定	-1448
题	-1449
时	-1450
本	-1451
济	-1452
战	-1453
于	-1454
工	-1455
强	-1456
理	-1457
分	-1458
能	-1459
将	-1460
开	-1461
也	-1462
党	-1463
制	-1464
建	-1465
代	-1466
动	-1467
就	-1468
0	-1469
多	-1470
高	-1471
面	-1472
前	-1473
世	-1474
化	-1475
社	-1476
导	-1477
好	-1478
湾	-1479
领	-1480
统	-1481
各	-1482
机	-1483
外	-1484
生	-1485
持	-1486
利	-1487
之	-1488
自	-1489
1	-1490
议	-1491
平	-1492
长	-1493
十	-1494
共	-1495
提	-1496
度	-1497
后	-1498
员	-1499
基	-1500
当	-1501
意	-1502
得	-1503
过	-1504
此	-1505
用	-1506
义	-1507
下	-1508
三	-1509
可	-1510
应	-1511
府	-1512
次	-1513
其	-1514
正	-1515
权	-1516
产	-1517
改	-1518
总	-1519
所	-1520
‘	-1521
今	-1522
区	-1523
立	-1524
而	-1525
已	-1526
交	-1527
决	-1528
体	-1529
’	-1530
还	-1531
界	-1532
入	-1533
任	-1534
保	-1535
务	-1536
教	-1537
认	-1538
向	-1539
示	-1540
者	-1541
设	-1542
资	-1543
都	-1544
些	-1545
场	-1546
际	-1547
明	-1548
解	-1549
学	-1550
月	-1551
治	-1552
公	-1553
性	-1554
9	-1555
调	-1556
信	-1557
内	-1558
市	-1559
2	-1560
但	-1561
间	-1562
势	-1563
并	-1564
华	-1565
步	-1566
等	-1567
指	-1568
目	-1569
心	-1570
安	-1571
相	-1572
访	-1573
最	-1574
反	-1575
西	-1576
从	-1577
期	-1578
组	-1579
:	-1580
取	-1581
着	-1582
种	-1583
使	-1584
委	-1585
策	-1586
二	-1587
天	-1588
必	-1589
海	-1590
更	-1591
通	-1592
结	-1593
争	-1594
特	-1595
论	-1596
增	-1597
思	-1598
第	-1599
江	-1600
历	-1601
求	-1602
坚	-1603
联	-1604
如	-1605
原	-1606
局	-1607
北	-1608
去	-1609
报	-1610
因	-1611
然	-1612
文	-1613
深	-1614
情	-1615
企	-1616
程	-1617
五	-1618
技	-1619
科	-1620
李	-1621
想	-1622
斯	-1623
谈	-1624
达	-1625
双	-1626
位	-1627
则	-1628
布	-1629
推	-1630
计	-1631
道	-1632
干	-1633
革	-1634
防	-1635
支	-1636
活	-1637
及	-1638
友	-1639
金	-1640
克	-1641
施	-1642
条	-1643
纪	-1644
记	-1645
件	-1646
贸	-1647
亚	-1648
水	-1649
益	-1650
规	-1651
起	-1652
果	-1653
极	-1654
九	-1655
受	-1656
量	-1657
京	-1658
看	-1659
点	-1660
史	-1661
形	-1662
续	-1663
举	-1664
管	-1665
席	-1666
泽	-1667
略	-1668
造	-1669
护	-1670
由	-1671
放	-1672
没	-1673
农	-1674
功	-1675
把	-1676
接	-1677
话	-1678
队	-1679
门	-1680
5	-1681
只	-1682
无	-1683
望	-1684
育	-1685
式	-1686
术	-1687
织	-1688
东	-1689
样	-1690
常	-1691
俄	-1692
完	-1693
变	-1694
团	-1695
项	-1696
识	-1697
须	-1698
近	-1699
至	-1700
视	-1701
首	-1702
协	-1703
根	-1704
确	-1705
族	-1706
稳	-1707
处	-1708
空	-1709
质	-1710
备	-1711
岸	-1712
整	-1713
南	-1714
见	-1715
才	-1716
断	-1717
划	-1718
参	-1719
继	-1720
朝	-1721
电	-1722
什	-1723
据	-1724
小	-1725
责	-1726
级	-1727
别	-1728
打	-1729
3	-1730
严	-1731
切	-1732
子	-1733
先	-1734
希	-1735
约	-1736
)	-1737
广	-1738
商	-1739
维	-1740
(	-1741
观	-1742
难	-1743
4	-1744
构	-1745
武	-1746
非	-1747
何	-1748
很	-1749
域	-1750
选	-1751
研	-1752
四	-1753
境	-1754
巴	-1755
感	-1756
效	-1757
未	-1758
众	-1759
影	-1760
案	-1761
越	-1762
院	-1763
做	-1764
6	-1765
响	-1766
具	-1767
努	-1768
尔	-1769
志	-1770
直	-1771
快	-1772
积	-1773
互	-1774
传	-1775
况	-1776
律	-1777
息	-1778
标	-1779
需	-1780
创	-1781
善	-1782
投	-1783
讲	-1784
陆	-1785
再	-1786
《	-1787
》	-1788
环	-1789
拉	-1790
独	-1791
少	-1792
易	-1793
流	-1794
该	-1795
弹	-1796
港	-1797
?	-1798
7	-1799
名	-1800
己	-1801
证	-1802
专	-1803
元	-1804
回	-1805
8	-1806
始	-1807
愿	-1808
数	-1809
给	-1810
集	-1811
朱	-1812
真	-1813
充	-1814
础	-1815
言	-1816
准	-1817
口	-1818
手	-1819
段	-1820
轮	-1821
采	-1822
比	-1823
神	-1824
器	-1825
许	-1826
里	-1827
央	-1828
罗	-1829
路	-1830
转	-1831
飞	-1832
源	-1833
承	-1834
官	-1835
办	-1836
命	-1837
知	-1838
又	-1839
容	-1840
依	-1841
品	-1842
洲	-1843
运	-1844
态	-1845
收	-1846
斗	-1847
究	-1848
—	-1849
司	-1850
存	-1851
张	-1852
马	-1853
监	-1854
祖	-1855
精	-1856
致	-1857
被	-1858
击	-1859
宣	-1860
演	-1861
终	-1862
促	-1863
普	-1864
财	-1865
香	-1866
往	-1867
边	-1868
习	-1869
告	-1870
扩	-1871
措	-1872
百	-1873
远	-1874
亿	-1875
注	-1876
清	-1877
球	-1878
省	-1879
网	-1880
职	-1881
供	-1882
列	-1883
威	-1884
批	-1885
消	-1886
藏	-1887
随	-1888
印	-1889
层	-1890
欧	-1891
几	-1892
满	-1893
预	-1894
八	-1895
德	-1896
挥	-1897
么	-1898
书	-1899
价	-1900
士	-1901
察	-1902
带	-1903
引	-1904
林	-1905
良	-1906
风	-1907
素	-1908
装	-1909
鲜	-1910
失	-1911
速	-1912
万	-1913
判	-1914
待	-1915
优	-1916
核	-1917
群	-1918
负	-1919
酞	-1920
头	-1921
突	-1922
身	-1923
走	-1924
.	-1925
七	-1926
显	-1927
那	-1928
土	-1929
复	-1930
查	-1931
烈	-1932
落	-1933
紧	-1934
曾	-1935
阿	-1936
周	-1937
岛	-1938
范	-1939
评	-1940
陈	-1941
验	-1942
仅	-1943
营	-1944
贯	-1945
兵	-1946
格	-1947
竞	-1948
督	-1949
%	-1950
兴	-1951
包	-1952
单	-1953
王	-1954
破	-1955
半	-1956
即	-1957
声	-1958
称	-1959
融	-1960
阶	-1961
它	-1962
执	-1963
类	-1964
考	-1965
顿	-1966
修	-1967
六	-1968
热	-1969
予	-1970
伊	-1971
副	-1972
否	-1973
城	-1974
审	-1975
害	-1976
或	-1977
模	-1978
派	-1979
老	-1980
障	-1981
助	-1982
服	-1983
请	-1984
费	-1985
线	-1986
署	-1987
航	-1988
连	-1989
仍	-1990
抓	-1991
犯	-1992
税	-1993
色	-1994
除	-1995
较	-1996
迎	-1997
鹏	-1998
值	-1999
千	-2000
困	-2001
富	-2002
尽	-2003
绝	-2004
践	-2005
英	-2006
韩	-2007
刻	-2008
换	-2009
气	-2010
率	-2011
盟	-2012
述	-2013
针	-2014
限	-2015
图	-2016
夫	-2017
巨	-2018
括	-2019
登	-2020
象	-2021
败	-2022
减	-2023
字	-2024
裂	-2025
遇	-2026
危	-2027
照	-2028
物	-2029
练	-2030
警	-2031
邪	-2032
伟	-2033
健	-2034
彻	-2035
村	-2036
涉	-2037
训	-2038
担	-2039
欢	-2040
山	-2041
章	-2042
罪	-2043
足	-2044
辉	-2045
且	-2046
围	-2047
坦	-2048
届	-2049
闻	-2050
险	-2051
止	-2052
初	-2053
培	-2054
念	-2055
早	-2056
算	-2057
讨	-2058
车	-2059
亲	-2060
卫	-2061
密	-2062
抗	-2063
校	-2064
脑	-2065
搞	-2066
检	-2067
n	-2068
你	-2069
够	-2070
控	-2071
献	-2072
获	-2073
驻	-2074
火	-2075
让	-2076
趋	-2077
令	-2078
光	-2079
型	-2080
白	-2081
谢	-2082
尼	-2083
离	-2084
舰	-2085
荣	-2086
谊	-2087
挑	-2088
甚	-2089
答	-2090
赖	-2091
适	-2092
m	-2093
久	-2094
升	-2095
均	-2096
虽	-2097
午	-2098
却	-2099
宗	-2100
康	-2101
御	-2102
股	-2103
逐	-2104
镕	-2105
d	-2106
临	-2107
扁	-2108
按	-2109
景	-2110
束	-2111
每	-2112
谋	-2113
邦	-2114
钱	-2115
冲	-2116
奥	-2117
底	-2118
繁	-2119
胡	-2120
诺	-2121
键	-2122
序	-2123
福	-2124
谓	-2125
贡	-2126
迫	-2127
伙	-2128
尊	-2129
申	-2130
络	-2131
缺	-2132
节	-2133
赞	-2134
候	-2135
既	-2136
留	-2137
试	-2138
青	-2139
冷	-2140
爱	-2141
状	-2142
符	-2143
配	-2144
露	-2145
t	-2146
低	-2147
占	-2148
属	-2149
损	-2150
某	-2151
潜	-2152
激	-2153
疑	-2154
违	-2155
靠	-2156
顺	-2157
例	-2158
侵	-2159
养	-2160
媒	-2161
守	-2162
星	-2163
晤	-2164
额	-2165
古	-2166
另	-2167
售	-2168
固	-2169
客	-2170
置	-2171
裁	-2172
诚	-2173
召	-2174
探	-2175
款	-2176
祝	-2177
胜	-2178
雄	-2179
伴	-2180
住	-2181
州	-2182
澳	-2183
端	-2184
轻	-2185
介	-2186
付	-2187
刚	-2188
师	-2189
恶	-2190
择	-2191
排	-2192
敌	-2193
永	-2194
站	-2195
腐	-2196
途	-2197
侦	-2198
庆	-2199
泛	-2200
洪	-2201
私	-2202
签	-2203
索	-2204
退	-2205
霸	-2206
份	-2207
劳	-2208
归	-2209
抵	-2210
毒	-2211
石	-2212
射	-2213
峡	-2214
扬	-2215
杂	-2216
河	-2217
纳	-2218
触	-2219
透	-2220
锦	-2221
乎	-2222
便	-2223
兰	-2224
听	-2225
坏	-2226
拥	-2227
攻	-2228
旁	-2229
游	-2230
胁	-2231
胞	-2232
脱	-2233
虑	-2234
超	-2235
跨	-2236
避	-2237
债	-2238
她	-2239
怎	-2240
料	-2241
智	-2242
补	-2243
追	-2244
遍	-2245
压	-2246
启	-2247
琛	-2248
票	-2249
贫	-2250
乐	-2251
卡	-2252
县	-2253
右	-2254
唐	-2255
居	-2256
征	-2257
暴	-2258
析	-2259
涛	-2260
盾	-2261
绍	-2262
花	-2263
角	-2264
诉	-2265
遭	-2266
邻	-2267
o	-2268
·	-2269
停	-2270
典	-2271
勒	-2272
吴	-2273
座	-2274
悉	-2275
死	-2276
疆	-2277
眼	-2278
综	-2279
草	-2280
购	-2281
儿	-2282
免	-2283
剧	-2284
呼	-2285
坛	-2286
室	-2287
差	-2288
洋	-2289
田	-2290
盛	-2291
粮	-2292
编	-2293
银	-2294
降	-2295
零	-2296
-	-2297
伤	-2298
借	-2299
宪	-2300
币	-2301
托	-2302
救	-2303
波	-2304
秀	-2305
赢	-2306
镇	-2307
!	-2308
径	-2309
故	-2310
灾	-2311
纷	-2312
若	-2313
苦	-2314
讯	-2315
距	-2316
邀	-2317
黑	-2318
龙	-2319
w	-2320
乌	-2321
亡	-2322
允	-2323
幕	-2324
弃	-2325
怀	-2326
急	-2327
折	-2328
晚	-2329
硬	-2330
课	-2331
野	-2332
食	-2333
鼓	-2334
乱	-2335
余	-2336
假	-2337
塔	-2338
女	-2339
帮	-2340
幅	-2341
弱	-2342
招	-2343
握	-2344
架	-2345
短	-2346
矿	-2347
移	-2348
背	-2349
萨	-2350
贵	-2351
遵	-2352
似	-2353
奋	-2354
宝	-2355
履	-2356
振	-2357
旅	-2358
杰	-2359
歧	-2360
汇	-2361
沿	-2362
测	-2363
绩	-2364
舆	-2365
邓	-2366
阻	-2367
;	-2368
买	-2369
仪	-2370
厦	-2371
号	-2372
姆	-2373
宏	-2374
尚	-2375
拒	-2376
撞	-2377
沙	-2378
温	-2379
禁	-2380
艰	-2381
袭	-2382
迷	-2383
铁	-2384
馆	-2385
鲍	-2386
─	-2387
丰	-2388
乏	-2389
伍	-2390
伯	-2391
刑	-2392
圆	-2393
妥	-2394
延	-2395
找	-2396
曲	-2397
朗	-2398
母	-2399
油	-2400
潮	-2401
炸	-2402
瑞	-2403
璇	-2404
矛	-2405
艇	-2406
衡	-2407
误	-2408
乡	-2409
享	-2410
像	-2411
孙	-2412
寻	-2413
尤	-2414
庭	-2415
恐	-2416
援	-2417
散	-2418
杀	-2419
班	-2420
病	-2421
秩	-2422
纲	-2423
聚	-2424
莫	-2425
订	-2426
释	-2427
p	-2428
云	-2429
味	-2430
哈	-2431
喜	-2432
宁	-2433
岁	-2434
巩	-2435
惠	-2436
拟	-2437
摆	-2438
映	-2439
昨	-2440
泰	-2441
炮	-2442
肯	-2443
觉	-2444
货	-2445
赏	-2446
醒	-2447
错	-2448
奉	-2449
封	-2450
库	-2451
恢	-2452
渐	-2453
渡	-2454
灭	-2455
版	-2456
竟	-2457
米	-2458
苏	-2459
贺	-2460
载	-2461
迟	-2462
阁	-2463
顾	-2464
侨	-2465
写	-2466
医	-2467
吉	-2468
截	-2469
扎	-2470
拓	-2471
拔	-2472
拜	-2473
播	-2474
替	-2475
殊	-2476
污	-2477
瓦	-2478
缓	-2479
衷	-2480
赵	-2481
软	-2482
辩	-2483
迅	-2484
送	-2485
震	-2486
伐	-2487
倒	-2488
倡	-2489
刘	-2490
左	-2491
廉	-2492
异	-2493
户	-2494
毛	-2495
湖	-2496
牌	-2497
虚	-2498
销	-2499
静	-2500
卿	-2501
吁	-2502
含	-2503
吸	-2504
呢	-2505
哪	-2506
唯	-2507
夏	-2508
奇	-2509
廷	-2510
怕	-2511
愈	-2512
愤	-2513
授	-2514
掌	-2515
春	-2516
松	-2517
森	-2518
毁	-2519
洛	-2520
痴	-2521
睦	-2522
细	-2523
耶	-2524
贷	-2525
赴	-2526
遗	-2527
雷	-2528
励	-2529
叙	-2530
吕	-2531
塞	-2532
岗	-2533
录	-2534
忧	-2535
惊	-2536
扰	-2537
旦	-2538
暂	-2539
杨	-2540
残	-2541
沉	-2542
泉	-2543
熟	-2544
父	-2545
碍	-2546
祗	-2547
红	-2548
翻	-2549
菲	-2550
读	-2551
跟	-2552
辞	-2553
骗	-2554
黄	-2555
估	-2556
卖	-2557
园	-2558
套	-2559
婚	-2560
岚	-2561
川	-2562
幸	-2563
扶	-2564
染	-2565
楚	-2566
浩	-2567
莲	-2568
谁	-2569
赫	-2570
输	-2571
鉴	-2572
阔	-2573
音	-2574
鲁	-2575
c	-2576
倍	-2577
兼	-2578
劲	-2579
厚	-2580
吗	-2581
哥	-2582
圣	-2583
彼	-2584
忠	-2585
懈	-2586
拖	-2587
拿	-2588
旗	-2589
洁	-2590
玉	-2591
皮	-2592
磋	-2593
血	-2594
跃	-2595
钟	-2596
频	-2597
黎	-2598
/	-2599
【	-2600
】	-2601
储	-2602
博	-2603
吃	-2604
巡	-2605
循	-2606
惕	-2607
戴	-2608
拦	-2609
捕	-2610
搜	-2611
敏	-2612
旧	-2613
朋	-2614
木	-2615
材	-2616
概	-2617
煤	-2618
番	-2619
礼	-2620
篇	-2621
累	-2622
纸	-2623
缩	-2624
艺	-2625
莱	-2626
诸	-2627
阵	-2628
隐	-2629
驱	-2630
a	-2631
乃	-2632
亦	-2633
割	-2634
勤	-2635
厅	-2636
叶	-2637
哲	-2638
壮	-2639
奠	-2640
宴	-2641
尉	-2642
峰	-2643
彩	-2644
惜	-2645
摇	-2646
末	-2647
歪	-2648
毫	-2649
汉	-2650
涵	-2651
筹	-2652
简	-2653
纠	-2654
纽	-2655
绕	-2656
缔	-2657
罚	-2658
翼	-2659
肃	-2660
药	-2661
董	-2662
覆	-2663
语	-2664
赛	-2665
辛	-2666
迹	-2667
阳	-2668
隆	-2669
○	-2670
倾	-2671
削	-2672
勇	-2673
呈	-2674
堂	-2675
妇	-2676
季	-2677
宫	-2678
宾	-2679
峻	-2680
忍	-2681
忘	-2682
悲	-2683
戏	-2684
揭	-2685
柬	-2686
树	-2687
歌	-2688
氛	-2689
沈	-2690
灵	-2691
烟	-2692
焚	-2693
片	-2694
牢	-2695
牲	-2696
牺	-2697
痛	-2698
盖	-2699
码	-2700
秘	-2701
耳	-2702
般	-2703
船	-2704
裕	-2705
词	-2706
迈	-2707
逃	-2708
锁	-2709
闹	-2710
阐	-2711
亏	-2712
凝	-2713
勃	-2714
厉	-2715
徐	-2716
悠	-2717
慨	-2718
撤	-2719
旬	-2720
植	-2721
横	-2722
欲	-2723
穆	-2724
笔	-2725
舞	-2726
蒙	-2727
赤	-2728
轰	-2729
遏	-2730
齐	-2731
r	-2732
s	-2733
仰	-2734
伦	-2735
偏	-2736
凡	-2737
函	-2738
刺	-2739
吹	-2740
圳	-2741
坐	-2742
夜	-2743
奖	-2744
姓	-2745
帝	-2746
怖	-2747
戈	-2748
抱	-2749
摩	-2750
梁	-2751
浪	-2752
混	-2753
炼	-2754
牙	-2755
狂	-2756
珍	-2757
皇	-2758
箱	-2759
纯	-2760
耕	-2761
蒂	-2762
袖	-2763
询	-2764
贩	-2765
贴	-2766
轨	-2767
迁	-2768
迪	-2769
骨	-2770
b	-2771
i	-2772
丹	-2773
丽	-2774
偿	-2775
兑	-2776
冒	-2777
券	-2778
卓	-2779
句	-2780
圈	-2781
坡	-2782
垄	-2783
夕	-2784
夺	-2785
姻	-2786
崇	-2787
废	-2788
弟	-2789
役	-2790
徒	-2791
微	-2792
忽	-2793
您	-2794
慎	-2795
房	-2796
抛	-2797
捷	-2798
掉	-2799
操	-2800
敢	-2801
暗	-2802
枚	-2803
枪	-2804
柱	-2805
框	-2806
毕	-2807
沃	-2808
煌	-2809
爆	-2810
玺	-2811
磨	-2812
秋	-2813
童	-2814
绳	-2815
胆	-2816
脚	-2817
衍	-2818
诞	-2819
谴	-2820
贝	-2821
贾	-2822
辟	-2823
递	-2824
逼	-2825
钢	-2826
闭	-2827
附	-2828
陵	-2829
隔	-2830
顶	-2831
顽	-2832
驾	-2833
麦	-2834
\	-2835
e	-2836
●	-2837
丁	-2838
乘	-2839
井	-2840
冰	-2841
凌	-2842
凭	-2843
勾	-2844
厂	-2845
埔	-2846
壁	-2847
妻	-2848
宽	-2849
寄	-2850
怪	-2851
恨	-2852
恩	-2853
惯	-2854
慧	-2855
押	-2856
携	-2857
敬	-2858
旨	-2859
晨	-2860
曹	-2861
杜	-2862
板	-2863
歉	-2864
毅	-2865
氏	-2866
浙	-2867
滋	-2868
滩	-2869
牵	-2870
犹	-2871
猛	-2872
穷	-2873
箭	-2874
糊	-2875
纵	-2876
缴	-2877
肆	-2878
肩	-2879
艘	-2880
览	-2881
誉	-2882
貌	-2883
赋	-2884
赶	-2885
踏	-2886
辈	-2887
辑	-2888
迄	-2889
逻	-2890
颇	-2891
餐	-2892
麻	-2893
I	-2894
丝	-2895
乔	-2896
伞	-2897
伪	-2898
佩	-2899
兹	-2900
刊	-2901
剥	-2902
劣	-2903
吨	-2904
圭	-2905
墨	-2906
妄	-2907
妙	-2908
宋	-2909
庞	-2910
忆	-2911
挝	-2912
挡	-2913
敦	-2914
昌	-2915
桥	-2916
汗	-2917
汰	-2918
汽	-2919
渠	-2920
滞	-2921
滨	-2922
疏	-2923
睛	-2924
碑	-2925
祥	-2926
缘	-2927
荡	-2928
谍	-2929
跳	-2930
辅	-2931
逆	-2932
遣	-2933
锐	-2934
阅	-2935
陪	-2936
陷	-2937
雅	-2938
雨	-2939
雪	-2940
靖	-2941
骤	-2942
俱	-2943
偶	-2944
傅	-2945
僚	-2946
册	-2947
卢	-2948
叔	-2949
叫	-2950
唱	-2951
嘴	-2952
壤	-2953
奏	-2954
契	-2955
奔	-2956
妈	-2957
娱	-2958
嫌	-2959
寨	-2960
尝	-2961
屡	-2962
帕	-2963
帜	-2964
庄	-2965
店	-2966
彰	-2967
惩	-2968
慑	-2969
戒	-2970
抢	-2971
挂	-2972
挠	-2973
挫	-2974
捍	-2975
撒	-2976
旱	-2977
曼	-2978
汪	-2979
沟	-2980
泄	-2981
津	-2982
淘	-2983
渗	-2984
漫	-2985
瞩	-2986
祸	-2987
稿	-2988
穿	-2989
绪	-2990
耀	-2991
肇	-2992
艾	-2993
荒	-2994
菜	-2995
蓄	-2996
蓝	-2997
蓬	-2998
藉	-2999
衰	-3000
诱	-3001
谬	-3002
趣	-3003
跑	-3004
踪	-3005
辆	-3006
逞	-3007
邮	-3008
郭	-3009
锋	-3010
霍	-3011
饱	-3012
f	-3013
g	-3014
丧	-3015
仁	-3016
仇	-3017
伏	-3018
休	-3019
伸	-3020
俗	-3021
偷	-3022
冈	-3023
勘	-3024
吧	-3025
咨	-3026
喊	-3027
嘉	-3028
堡	-3029
堵	-3030
墓	-3031
姐	-3032
孤	-3033
宇	-3034
宜	-3035
尖	-3036
巧	-3037
幻	-3038
弄	-3039
弘	-3040
恰	-3041
患	-3042
惨	-3043
憾	-3044
扭	-3045
扮	-3046
披	-3047
晰	-3048
梦	-3049
楼	-3050
殖	-3051
沪	-3052
泊	-3053
泥	-3054
泪	-3055
洽	-3056
涨	-3057
添	-3058
漠	-3059
潘	-3060
炎	-3061
琳	-3062
盘	-3063
租	-3064
籍	-3065
肉	-3066
肥	-3067
腾	-3068
荐	-3069
葡	-3070
蔡	-3071
街	-3072
谨	-3073
谷	-3074
辜	-3075
钻	-3076
陕	-3077
驳	-3078
魂	-3079
鸣	-3080
默	-3081
丑	-3082
佐	-3083
佛	-3084
僵	-3085
兄	-3086
凤	-3087
凯	-3088
刀	-3089
刷	-3090
匈	-3091
卜	-3092
吐	-3093
哀	-3094
嚣	-3095
垒	-3096
埃	-3097
姜	-3098
姿	-3099
嫩	-3100
宙	-3101
屈	-3102
彭	-3103
忙	-3104
怒	-3105
怨	-3106
恕	-3107
悄	-3108
惑	-3109
愉	-3110
慰	-3111
懂	-3112
扑	-3113
扣	-3114
抉	-3115
抑	-3116
抬	-3117
拼	-3118
挖	-3119
捞	-3120
掩	-3121
搬	-3122
斤	-3123
旋	-3124
旺	-3125
昧	-3126
昭	-3127
桑	-3128
械	-3129
棋	-3130
欺	-3131
汤	-3132
浓	-3133
浮	-3134
涌	-3135
淡	-3136
滥	-3137
漏	-3138
炒	-3139
炭	-3140
焰	-3141
狠	-3142
玩	-3143
甘	-3144
甲	-3145
盐	-3146
睹	-3147
硕	-3148
稍	-3149
篪	-3150
纺	-3151
缅	-3152
罢	-3153
耻	-3154
聪	-3155
胀	-3156
膨	-3157
臣	-3158
芝	-3159
荷	-3160
蒋	-3161
薄	-3162
讼	-3163
诗	-3164
豪	-3165
贿	-3166
跌	-3167
轿	-3168
辖	-3169
辽	-3170
逊	-3171
逮	-3172
铺	-3173
锨	-3174
页	-3175
颁	-3176
颂	-3177
饭	-3178
驶	-3179
骄	-3180
h	-3181
丢	-3182
仔	-3183
仗	-3184
佳	-3185
倪	-3186
傲	-3187
兆	-3188
冠	-3189
冤	-3190
匹	-3191
叛	-3192
咄	-3193
哭	-3194
嘛	-3195
垮	-3196
妹	-3197
姚	-3198
姬	-3199
寒	-3200
寺	-3201
尸	-3202
尾	-3203
屏	-3204
帅	-3205
弊	-3206
彪	-3207
恪	-3208
悔	-3209
悟	-3210
惟	-3211
慈	-3212
戚	-3213
抚	-3214
抨	-3215
抽	-3216
拆	-3217
拍	-3218
拘	-3219
拨	-3220
拭	-3221
挽	-3222
搁	-3223
摧	-3224
摸	-3225
撑	-3226
擅	-3227
昂	-3228
晋	-3229
晓	-3230
晶	-3231
朴	-3232
杉	-3233
杭	-3234
枢	-3235
柏	-3236
桂	-3237
梅	-3238
梵	-3239
棉	-3240
歼	-3241
沦	-3242
泡	-3243
洞	-3244
浦	-3245
润	-3246
淮	-3247
渊	-3248
漂	-3249
灿	-3250
烂	-3251
烦	-3252
烧	-3253
焦	-3254
燃	-3255
牛	-3256
牟	-3257
狱	-3258
猖	-3259
玛	-3260
瓜	-3261
画	-3262
疗	-3263
疫	-3264
疾	-3265
症	-3266
皆	-3267
盼	-3268
睐	-3269
矶	-3270
硝	-3271
碰	-3272
稻	-3273
竭	-3274
粉	-3275
耗	-3276
脆	-3277
脸	-3278
舍	-3279
芬	-3280
茨	-3281
萧	-3282
蔽	-3283
虎	-3284
虞	-3285
蛮	-3286
衅	-3287
裸	-3288
谐	-3289
谣	-3290
辱	-3291
返	-3292
迭	-3293
逢	-3294
逾	-3295
遥	-3296
酷	-3297
铸	-3298
阴	-3299
陇	-3300
霜	-3301
鞍	-3302
颗	-3303
饮	-3304
驭	-3305
鬼	-3306
鱼	-3307
鹰	-3308
龄	-3309
'	-3310
[	-3311
]	-3312
丛	-3313
丸	-3314
亟	-3315
亩	-3316
仓	-3317
侧	-3318
俊	-3319
催	-3320
冬	-3321
净	-3322
凶	-3323
剂	-3324
剩	-3325
勉	-3326
卷	-3327
吊	-3328
吓	-3329
君	-3330
吞	-3331
唆	-3332
喝	-3333
喻	-3334
嚓	-3335
坎	-3336
块	-3337
坪	-3338
埋	-3339
堪	-3340
填	-3341
墙	-3342
壳	-3343
夸	-3344
奴	-3345
娜	-3346
孕	-3347
孝	-3348
孩	-3349
寂	-3350
尘	-3351
屿	-3352
峙	-3353
崛	-3354
崩	-3355
崭	-3356
幌	-3357
幼	-3358
庸	-3359
廿	-3360
弥	-3361
彬	-3362
徽	-3363
忌	-3364
悬	-3365
悼	-3366
愚	-3367
慢	-3368
憎	-3369
抹	-3370
拯	-3371
拳	-3372
挟	-3373
挪	-3374
揽	-3375
摄	-3376
撕	-3377
擦	-3378
斌	-3379
曝	-3380
枕	-3381
枯	-3382
栏	-3383
栖	-3384
桃	-3385
欠	-3386
殷	-3387
沧	-3388
沫	-3389
泅	-3390
洗	-3391
浇	-3392
浸	-3393
渔	-3394
滑	-3395
澜	-3396
灌	-3397
灯	-3398
焕	-3399
煽	-3400
燕	-3401
牧	-3402
猎	-3403
獗	-3404
琴	-3405
琼	-3406
疲	-3407
盈	-3408
盲	-3409
瞎	-3410
瞬	-3411
瞻	-3412
祉	-3413
秉	-3414
笃	-3415
笑	-3416
笼	-3417
筋	-3418
粗	-3419
绑	-3420
绸	-3421
绿	-3422
缉	-3423
罕	-3424
翰	-3425
聘	-3426
脉	-3427
腰	-3428
膜	-3429
膺	-3430
舌	-3431
茂	-3432
萄	-3433
蔑	-3434
蔓	-3435
蔬	-3436
蝉	-3437
衣	-3438
誓	-3439
谱	-3440
豆	-3441
贤	-3442
贪	-3443
贬	-3444
赔	-3445
赠	-3446
躲	-3447
郎	-3448
郑	-3449
酋	-3450
酒	-3451
钦	-3452
钩	-3453
铭	-3454
铲	-3455
链	-3456
闪	-3457
闽	-3458
阎	-3459
阮	-3460
陶	-3461
雾	-3462
韦	-3463
颖	-3464
饰	-3465
驰	-3466
骂	-3467
骚	-3468
魅	-3469
魏	-3470
鸿	-3471
"	-3472
+	-3473
x	-3474
│	-3475
亮	-3476
伽	-3477
佑	-3478
俑	-3479
冕	-3480
冯	-3481
冶	-3482
凳	-3483
刃	-3484
剑	-3485
劝	-3486
劫	-3487
匆	-3488
匙	-3489
匡	-3490
匿	-3491
卑	-3492
卸	-3493
厄	-3494
厢	-3495
叉	-3496
吵	-3497
吾	-3498
呆	-3499
咎	-3500
咱	-3501
唾	-3502
啦	-3503
嘱	-3504
噤	-3505
噪	-3506
噶	-3507
囊	-3508
圾	-3509
坷	-3510
垃	-3511
堕	-3512
堤	-3513
塌	-3514
奶	-3515
妨	-3516
宛	-3517
宿	-3518
寞	-3519
寡	-3520
寥	-3521
尹	-3522
屋	-3523
屠	-3524
屹	-3525
岩	-3526
岳	-3527
巷	-3528
帆	-3529
幽	-3530
床	-3531
庙	-3532
弗	-3533
弯	-3534
忱	-3535
忾	-3536
怂	-3537
恃	-3538
恒	-3539
恿	-3540
悦	-3541
惶	-3542
慕	-3543
戎	-3544
扫	-3545
挚	-3546
挤	-3547
捣	-3548
掘	-3549
搓	-3550
撰	-3551
攀	-3552
旭	-3553
昆	-3554
暖	-3555
暨	-3556
朽	-3557
杼	-3558
枝	-3559
柔	-3560
柯	-3561
柳	-3562
桌	-3563
棘	-3564
楷	-3565
榜	-3566
榻	-3567
歹	-3568
毯	-3569
氓	-3570
汁	-3571
池	-3572
汲	-3573
沐	-3574
沓	-3575
沸	-3576
浊	-3577
浑	-3578
涂	-3579
涅	-3580
涝	-3581
涯	-3582
淋	-3583
淑	-3584
淳	-3585
淹	-3586
渎	-3587
渲	-3588
渴	-3589
湄	-3590
溃	-3591
溯	-3592
滴	-3593
澄	-3594
濒	-3595
灰	-3596
灼	-3597
炳	-3598
烫	-3599
煞	-3600
熊	-3601
燮	-3602
猜	-3603
珠	-3604
瓷	-3605
男	-3606
畅	-3607
畏	-3608
畔	-3609
畜	-3610
疯	-3611
皂	-3612
盗	-3613
眉	-3614
睁	-3615
睫	-3616
瞄	-3617
矢	-3618
砍	-3619
碎	-3620
禧	-3621
禹	-3622
稽	-3623
窗	-3624
竣	-3625
竹	-3626
篡	-3627
糟	-3628
纤	-3629
绯	-3630
缠	-3631
羊	-3632
翟	-3633
耐	-3634
肖	-3635
胎	-3636
胸	-3637
脊	-3638
腊	-3639
腔	-3640
腿	-3641
舜	-3642
苗	-3643
蒸	-3644
蕴	-3645
藤	-3646
藻	-3647
虐	-3648
蛇	-3649
袋	-3650
裔	-3651
讹	-3652
详	-3653
诬	-3654
诽	-3655
谤	-3656
谭	-3657
豫	-3658
贞	-3659
赃	-3660
蹈	-3661
辙	-3662
辨	-3663
辰	-3664
逸	-3665
邯	-3666
邱	-3667
郊	-3668
鄙	-3669
酿	-3670
钥	-3671
锅	-3672
镜	-3673
闲	-3674
陋	-3675
陌	-3676
隅	-3677
隶	-3678
雁	-3679
雇	-3680
霖	-3681
靳	-3682
鞋	-3683
颜	-3684
颠	-3685
饶	-3686
饿	-3687
骇	-3688
骏	-3689
魔	-3690
鲅	-3691
鸟	-3692
鸡	-3693
麟	-3694
`	-3695
u	-3696
y	-3697
z	-3698
■	-3699
◆	-3700
丐	-3701
丕	-3702
丘	-3703
乞	-3704
亭	-3705
亵	-3706
仆	-3707
仑	-3708
仙	-3709
仲	-3710
仿	-3711
伋	-3712
伎	-3713
佣	-3714
侈	-3715
侮	-3716
侯	-3717
俘	-3718
俩	-3719
倦	-3720
偃	-3721
僇	-3722
儆	-3723
儒	-3724
冥	-3725
凑	-3726
凛	-3727
凹	-3728
凿	-3729
刁	-3730
删	-3731
剔	-3732
剖	-3733
勋	-3734
勿	-3735
匮	-3736
卧	-3737
卲	-3738
厘	-3739
厥	-3740
厮	-3741
叠	-3742
叮	-3743
叹	-3744
吏	-3745
吼	-3746
呀	-3747
呐	-3748
呲	-3749
咀	-3750
咐	-3751
咬	-3752
哗	-3753
哨	-3754
唁	-3755
唏	-3756
唤	-3757
啊	-3758
喀	-3759
喇	-3760
喷	-3761
嗣	-3762
嘎	-3763
嘘	-3764
嘲	-3765
嘹	-3766
噬	-3767
嚷	-3768
嚼	-3769
坑	-3770
坟	-3771
坠	-3772
坤	-3773
垂	-3774
垢	-3775
垫	-3776
埠	-3777
塑	-3778
墅	-3779
墟	-3780
墩	-3781
夷	-3782
奈	-3783
奎	-3784
奸	-3785
妮	-3786
娃	-3787
娇	-3788
婉	-3789
婴	-3790
媳	-3791
嫁	-3792
孀	-3793
孔	-3794
孟	-3795
孱	-3796
宠	-3797
宰	-3798
尧	-3799
尬	-3800
尴	-3801
尺	-3802
岂	-3803
岐	-3804
巾	-3805
帐	-3806
帘	-3807
帷	-3808
庇	-3809
廓	-3810
廖	-3811
弓	-3812
弦	-3813
彝	-3814
徙	-3815
忏	-3816
恍	-3817
恙	-3818
恭	-3819
恼	-3820
悖	-3821
惚	-3822
惧	-3823
惫	-3824
惹	-3825
慌	-3826
慷	-3827
懊	-3828
戍	-3829
扔	-3830
扛	-3831
扯	-3832
拗	-3833
拙	-3834
拢	-3835
拱	-3836
拾	-3837
挈	-3838
挣	-3839
挨	-3840
挺	-3841
捆	-3842
捎	-3843
捏	-3844
捐	-3845
捧	-3846
掖	-3847
掠	-3848
掣	-3849
描	-3850
插	-3851
揪	-3852
搏	-3853
搭	-3854
摊	-3855
摒	-3856
摔	-3857
摘	-3858
撇	-3859
撮	-3860
攘	-3861
敲	-3862
斜	-3863
斡	-3864
斥	-3865
斧	-3866
斩	-3867
旌	-3868
旷	-3869
昔	-3870
晴	-3871
暑	-3872
暧	-3873
曜	-3874
曦	-3875
朔	-3876
朦	-3877
朵	-3878
杆	-3879
枉	-3880
枷	-3881
柴	-3882
栈	-3883
株	-3884
栽	-3885
梯	-3886
梳	-3887
棚	-3888
棣	-3889
棵	-3890
椭	-3891
椿	-3892
槌	-3893
槛	-3894
槽	-3895
歇	-3896
殁	-3897
殆	-3898
殴	-3899
殿	-3900
毋	-3901
毓	-3902
毙	-3903
汕	-3904
汛	-3905
沛	-3906
沼	-3907
沾	-3908
泌	-3909
泼	-3910
洒	-3911
浅	-3912
浴	-3913
液	-3914
淀	-3915
淆	-3916
淇	-3917
渣	-3918
渥	-3919
湿	-3920
溉	-3921
溢	-3922
溪	-3923
滏	-3924
滕	-3925
滚	-3926
滤	-3927
漳	-3928
潢	-3929
澎	-3930
炉	-3931
炙	-3932
炬	-3933
煦	-3934
熄	-3935
熬	-3936
爬	-3937
狗	-3938
狡	-3939
狭	-3940
猪	-3941
猾	-3942
玖	-3943
玲	-3944
珀	-3945
琅	-3946
琉	-3947
瑛	-3948
瑾	-3949
璃	-3950
璐	-3951
璞	-3952
璧	-3953
甩	-3954
甫	-3955
甸	-3956
町	-3957
疙	-3958
痕	-3959
痪	-3960
瘤	-3961
瘦	-3962
瘩	-3963
瘫	-3964
癫	-3965
盆	-3966
盹	-3967
眷	-3968
睬	-3969
睿	-3970
瞪	-3971
矩	-3972
砂	-3973
砒	-3974
砫	-3975
砸	-3976
碌	-3977
碧	-3978
碱	-3979
礁	-3980
礽	-3981
祀	-3982
祁	-3983
祟	-3984
祠	-3985
祭	-3986
禅	-3987
秒	-3988
稀	-3989
稞	-3990
穹	-3991
窃	-3992
窠	-3993
窥	-3994
筑	-3995
