<pad>	0
<unk>	0
<s>	0
</s>	0
▁t	-0
in	-1
▁a	-2
▁th	-3
▁the	-4
on	-5
re	-6
▁s	-7
▁c	-8
en	-9
at	-10
er	-11
▁o	-12
nd	-13
▁p	-14
it	-15
es	-16
is	-17
an	-18
▁.	-19
▁,	-20
▁w	-21
▁and	-22
or	-23
ion	-24
▁of	-25
al	-26
ed	-27
▁in	-28
ing	-29
▁f	-30
▁h	-31
▁m	-32
▁b	-33
ar	-34
ent	-35
ic	-36
▁to	-37
▁d	-38
ou	-39
▁re	-40
le	-41
ation	-42
ve	-43
om	-44
as	-45
▁e	-46
▁n	-47
il	-48
▁st	-49
op	-50
▁"	-51
st	-52
ly	-53
▁ch	-54
ct	-55
▁u	-56
ment	-57
▁be	-58
▁g	-59
▁is	-60
▁de	-61
ro	-62
id	-63
ce	-64
▁l	-65
th	-66
▁on	-67
ur	-68
▁chin	-69
▁for	-70
ol	-71
ri	-72
ad	-73
▁con	-74
▁that	-75
ch	-76
ut	-77
▁'	-78
ir	-79
im	-80
ver	-81
▁al	-82
ter	-83
res	-84
ill	-85
▁china	-86
se	-87
ul	-88
ld	-89
ot	-90
nt	-91
ig	-92
ci	-93
▁com	-94
▁it	-95
et	-96
ra	-97
▁we	-98
▁pro	-99
▁ex	-100
vel	-101
▁as	-102
ort	-103
ang	-104
▁j	-105
▁he	-106
ow	-107
▁ha	-108
ith	-109
▁sh	-110
▁cou	-111
ist	-112
ity	-113
▁with	-114
ong	-115
▁v	-116
ate	-117
▁wh	-118
▁ne	-119
▁at	-120
▁pe	-121
▁has	-122
ive	-123
▁y	-124
em	-125
ay	-126
velop	-127
▁develop	-128
▁su	-129
ies	-130
ations	-131
ain	-132
art	-133
▁an	-134
▁ta	-135
ore	-136
▁will	-137
and	-138
▁this	-139
▁im	-140
▁se	-141
▁un	-142
ers	-143
us	-144
port	-145
▁have	-146
if	-147
▁are	-148
est	-149
▁le	-150
un	-151
▁by	-152
con	-153
▁sa	-154
▁count	-155
▁wor	-156
rom	-157
ess	-158
ant	-159
iz	-160
end	-161
ust	-162
▁peop	-163
pe	-164
▁r	-165
te	-166
ther	-167
▁so	-168
qu	-169
ical	-170
▁people	-171
ary	-172
▁go	-173
ab	-174
iw	-175
ese	-176
▁not	-177
▁part	-178
iwan	-179
▁k	-180
conom	-181
▁taiwan	-182
▁development	-183
ous	-184
ould	-185
gh	-186
ge	-187
▁econom	-188
ational	-189
ap	-190
ie	-191
▁me	-192
▁res	-193
▁rel	-194
od	-195
cial	-196
ear	-197
▁us	-198
▁all	-199
▁1	-200
▁new	-201
▁or	-202
▁comm	-203
▁ad	-204
os	-205
ard	-206
▁:	-207
ff	-208
▁said	-209
ries	-210
▁pol	-211
cc	-212
▁tw	-213
um	-214
ip	-215
ia	-216
▁two	-217
ions	-218
▁chinese	-219
so	-220
▁z	-221
ry	-222
▁ma	-223
▁cont	-224
▁countries	-225
iv	-226
ress	-227
▁ar	-228
ited	-229
ru	-230
▁en	-231
▁also	-232
ance	-233
ure	-234
▁was	-235
▁op	-236
int	-237
ult	-238
▁should	-239
▁from	-240
▁co	-241
ome	-242
▁pl	-243
▁year	-244
▁stat	-245
igh	-246
▁their	-247
tern	-248
▁relations	-249
ian	-250
▁ind	-251
ade	-252
▁exp	-253
ign	-254
▁its	-255
ue	-256
▁comp	-257
▁economic	-258
▁reg	-259
ide	-260
reat	-261
▁ag	-262
▁out	-263
▁fa	-264
▁pr	-265
▁imp	-266
orm	-267
og	-268
ud	-269
ial	-270
ere	-271
king	-272
ction	-273
ke	-274
▁tr	-275
ities	-276
▁united	-277
ments	-278
▁ab	-279
▁one	-280
▁import	-281
ast	-282
vern	-283
▁states	-284
ated	-285
▁up	-286
oper	-287
▁bet	-288
fic	-289
▁can	-290
▁our	-291
▁govern	-292
ence	-293
▁party	-294
ish	-295
oint	-296
ace	-297
ious	-298
▁ent	-299
we	-300
▁man	-301
▁und	-302
form	-303
▁pres	-304
▁cent	-305
ces	-306
ib	-307
ich	-308
all	-309
ks	-310
▁la	-311
rou	-312
▁sin	-313
oc	-314
▁2	-315
▁under	-316
▁inc	-317
am	-318
ween	-319
▁between	-320
pr	-321
▁iss	-322
▁work	-323
el	-324
▁att	-325
ree	-326
▁cooper	-327
du	-328
▁sy	-329
pl	-330
▁sup	-331
ep	-332
▁acc	-333
▁government	-334
▁his	-335
ect	-336
ident	-337
ght	-338
▁lead	-339
▁they	-340
ding	-341
ilit	-342
ire	-343
▁more	-344
▁mo	-345
▁state	-346
▁must	-347
▁over	-348
00	-349
ual	-350
iang	-351
▁main	-352
age	-353
stem	-354
▁system	-355
▁per	-356
▁national	-357
▁mar	-358
▁milit	-359
▁there	-360
ans	-361
▁te	-362
ific	-363
▁str	-364
▁vis	-365
▁intern	-366
▁eff	-367
▁social	-368
▁pre	-369
▁been	-370
▁military	-371
olog	-372
▁rep	-373
▁cooperation	-374
ization	-375
▁dis	-376
▁important	-377
▁act	-378
▁tim	-379
▁qu	-380
▁li	-381
▁sec	-382
▁some	-383
▁world	-384
▁polic	-385
pt	-386
▁which	-387
ition	-388
▁great	-389
▁zh	-390
to	-391
▁af	-392
out	-393
▁bec	-394
▁spe	-395
eng	-396
ine	-397
▁sp	-398
▁am	-399
▁other	-400
ach	-401
▁ri	-402
▁how	-403
ren	-404
▁only	-405
hip	-406
ory	-407
ile	-408
▁fore	-409
▁polit	-410
ll	-411
ens	-412
▁meet	-413
▁but	-414
ub	-415
our	-416
uss	-417
apan	-418
▁cons	-419
ern	-420
▁prom	-421
cent	-422
▁fir	-423
▁international	-424
ms	-425
able	-426
▁country	-427
tain	-428
▁dep	-429
▁war	-430
▁visit	-431
land	-432
▁min	-433
▁jiang	-434
min	-435
▁high	-436
ac	-437
▁ser	-438
▁years	-439
me	-440
ons	-441
▁foreign	-442
act	-443
▁inte	-444
ice	-445
▁gu	-446
ater	-447
▁bas	-448
ative	-449
▁three	-450
ound	-451
ility	-452
lic	-453
ber	-454
▁peace	-455
▁made	-456
ful	-457
ism	-458
▁ro	-459
▁enter	-460
▁japan	-461
ag	-462
pect	-463
▁19	-464
▁cl	-465
▁do	-466
▁president	-467
▁no	-468
▁commit	-469
▁contin	-470
air	-471
ven	-472
▁ap	-473
▁plan	-474
uc	-475
ass	-476
▁law	-477
▁point	-478
▁right	-479
ural	-480
very	-481
▁def	-482
▁meeting	-483
iss	-484
▁time	-485
▁who	-486
ise	-487
au	-488
▁bo	-489
▁fri	-490
▁political	-491
ays	-492
▁inv	-493
▁stren	-494
▁sit	-495
▁were	-496
gth	-497
▁strength	-498
▁prov	-499
ced	-500
old	-501
ose	-502
uring	-503
▁after	-504
▁offic	-505
▁friend	-506
ides	-507
inci	-508
▁org	-509
fere	-510
▁princi	-511
chn	-512
anding	-513
▁promot	-514
▁region	-515
ward	-516
ving	-517
▁first	-518
▁conc	-519
▁techn	-520
are	-521
ense	-522
▁secur	-523
▁enterpr	-524
▁dem	-525
▁leaders	-526
▁committe	-527
ved	-528
ises	-529
▁pos	-530
▁hist	-531
▁support	-532
emin	-533
▁situ	-534
lement	-535
▁bu	-536
▁mark	-537
▁since	-538
▁fin	-539
▁policy	-540
▁long	-541
▁issue	-542
▁pers	-543
lish	-544
und	-545
ury	-546
▁const	-547
▁security	-548
ao	-549
ever	-550
ple	-551
▁ed	-552
reas	-553
▁had	-554
▁var	-555
▁than	-556
▁reform	-557
own	-558
cess	-559
▁car	-560
▁dif	-561
▁mem	-562
▁make	-563
ressed	-564
▁about	-565
ality	-566
▁zemin	-567
▁em	-568
▁again	-569
ble	-570
ision	-571
ight	-572
gress	-573
▁situation	-574
rit	-575
ating	-576
▁effort	-577
▁however	-578
▁x	-579
ral	-580
ening	-581
rough	-582
▁accor	-583
▁trade	-584
ract	-585
▁bus	-586
chang	-587
▁buil	-588
▁these	-589
▁market	-590
rait	-591
ateg	-592
rest	-593
▁au	-594
▁chang	-595
duct	-596
▁good	-597
▁russ	-598
▁them	-599
▁economy	-600
▁ra	-601
▁dec	-602
ublic	-603
▁exchang	-604
ors	-605
ues	-606
chie	-607
▁achie	-608
▁century	-609
▁technolog	-610
ted	-611
ung	-612
ures	-613
▁organ	-614
▁if	-615
▁est	-616
▁both	-617
▁strateg	-618
pc	-619
▁fe	-620
▁fur	-621
▁cult	-622
▁committee	-623
man	-624
ause	-625
▁sci	-626
▁tal	-627
resent	-628
▁central	-629
▁further	-630
ric	-631
▁into	-632
▁many	-633
▁sides	-634
▁through	-635
▁represent	-636
wn	-637
▁educ	-638
▁rights	-639
ification	-640
▁hum	-641
▁maj	-642
▁level	-643
▁enterprises	-644
▁ob	-645
▁adv	-646
▁sino	-647
▁various	-648
▁human	-649
iew	-650
les	-651
ning	-652
▁aff	-653
ution	-654
▁when	-655
▁major	-656
▁developing	-657
urre	-658
▁arm	-659
▁would	-660
▁increas	-661
▁gen	-662
uan	-663
▁ful	-664
ablish	-665
ij	-666
lect	-667
▁cor	-668
▁impro	-669
▁establish	-670
der	-671
ally	-672
ized	-673
ject	-674
▁during	-675
▁interest	-676
--	-677
▁still	-678
▁proble	-679
▁efforts	-680
ss	-681
ope	-682
▁mod	-683
ability	-684
▁fund	-685
▁principle	-686
▁air	-687
▁bel	-688
▁hong	-689
▁such	-690
▁implement	-691
▁i	-692
day	-693
oll	-694
▁ac	-695
▁199	-696
▁defense	-697
lo	-698
one	-699
ross	-700
▁stru	-701
▁gener	-702
▁forces	-703
ak	-704
ijing	-705
▁beijing	-706
ite	-707
arly	-708
▁auth	-709
vers	-710
▁fact	-711
▁pointed	-712
▁q	-713
▁held	-714
▁miss	-715
▁well	-716
ention	-717
▁ide	-718
▁pract	-719
▁depart	-720
oy	-721
bers	-722
▁author	-723
▁person	-724
▁underst	-725
ui	-726
ics	-727
▁pow	-728
▁even	-729
▁reun	-730
urrent	-731
ai	-732
gg	-733
ts	-734
▁zhu	-735
▁form	-736
▁current	-737
rain	-738
▁lar	-739
ost	-740
ible	-741
▁cap	-742
▁last	-743
▁indust	-744
▁invest	-745
▁public	-746
▁according	-747
▁report	-748
ok	-749
▁)	-750
ind	-751
ize	-752
row	-753
▁stud	-754
▁resol	-755
▁become	-756
▁concern	-757
its	-758
sel	-759
fore	-760
▁very	-761
▁cad	-762
epend	-763
▁inter	-764
cy	-765
▁now	-766
▁resp	-767
▁joint	-768
▁inform	-769
▁app	-770
▁real	-771
▁education	-772
▁--	-773
ters	-774
▁any	-775
▁put	-776
▁set	-777
▁you	-778
▁reunification	-779
erv	-780
ively	-781
illion	-782
mental	-783
▁independ	-784
ft	-785
▁(	-786
ack	-787
ied	-788
▁gr	-789
▁ext	-790
▁cond	-791
▁five	-792
▁issues	-793
▁members	-794
▁interests	-795
atic	-796
▁hand	-797
itions	-798
▁modern	-799
▁against	-800
ina	-801
ship	-802
▁ter	-803
▁dire	-804
▁being	-805
▁exper	-806
▁may	-807
▁rem	-808
▁use	-809
▁prop	-810
▁view	-811
▁commun	-812
▁russia	-813
▁maintain	-814
▁requ	-815
▁cross	-816
▁today	-817
▁recent	-818
▁result	-819
ccess	-820
▁bush	-821
▁inst	-822
▁force	-823
▁success	-824
lud	-825
ret	-826
ways	-827
▁fal	-828
ually	-829
▁kong	-830
▁order	-831
▁strengthen	-832
▁building	-833
ked	-834
led	-835
cept	-836
▁disc	-837
istr	-838
▁most	-839
ilater	-840
▁activ	-841
▁admin	-842
▁belie	-843
▁large	-844
▁stand	-845
▁present	-846
▁information	-847
ount	-848
▁oper	-849
▁side	-850
▁finan	-851
▁minis	-852
▁cadres	-853
ute	-854
cing	-855
ough	-856
▁fut	-857
▁see	-858
▁partic	-859
▁5	-860
ings	-861
▁sub	-862
▁grow	-863
▁what	-864
strait	-865
ph	-866
ves	-867
▁sign	-868
▁always	-869
▁effect	-870
▁improve	-871
▁financial	-872
▁stability	-873
▁independence	-874
▁ins	-875
▁pri	-876
feren	-877
▁future	-878
▁percent	-879
cil	-880
ict	-881
rib	-882
▁ke	-883
▁sm	-884
ield	-885
▁art	-886
▁end	-887
▁past	-888
ilateral	-889
▁achieve	-890
▁administr	-891
▁authorities	-892
ety	-893
ered	-894
iron	-895
▁own	-896
china	-897
▁coun	-898
estern	-899
▁areas	-900
▁common	-901
▁regard	-902
▁history	-903
▁mainland	-904
he	-905
▁leg	-906
ollow	-907
▁grou	-908
▁meas	-909
ungong	-910
▁while	-911
▁affair	-912
▁follow	-913
▁continue	-914
▁friendly	-915
▁official	-916
▁expressed	-917
ron	-918
▁quest	-919
▁falungong	-920
▁rev	-921
▁respons	-922
▁western	-923
ier	-924
lev	-925
red	-926
▁env	-927
▁num	-928
▁strategic	-929
▁10	-930
▁hu	-931
▁cer	-932
▁equ	-933
▁play	-934
▁direct	-935
▁strong	-936
▁importance	-937
pp	-938
leg	-939
▁chair	-940
▁because	-941
ov	-942
ath	-943
irc	-944
ned	-945
▁kn	-946
▁lo	-947
ists	-948
▁conf	-949
▁role	-950
▁same	-951
▁prote	-952
▁includ	-953
▁necess	-954
▁activities	-955
par	-956
ling	-957
▁cpc	-958
▁deep	-959
▁carry	-960
▁power	-961
▁talks	-962
ological	-963
▁affairs	-964
▁environ	-965
▁problems	-966
▁sc	-967
▁pur	-968
▁conditions	-969
ech	-970
▁med	-971
▁nat	-972
▁tas	-973
▁funda	-974
av	-975
▁3	-976
mit	-977
▁far	-978
▁mother	-979
▁technology	-980
gr	-981
ji	-982
ase	-983
ene	-984
outh	-985
▁int	-986
▁circ	-987
▁democ	-988
▁trans	-989
▁require	-990
▁bilateral	-991
▁4	-992
iod	-993
▁him	-994
▁char	-995
▁down	-996
▁comple	-997
▁histor	-998
▁manage	-999
▁period	-1000
▁certain	-1001
▁continu	-1002
▁minister	-1003
▁progress	-1004
▁friendship	-1005
ided	-1006
▁ass	-1007
▁loc	-1008
▁mat	-1009
▁opp	-1010
▁need	-1011
ame	-1012
▁ann	-1013
▁way	-1014
▁cour	-1015
▁just	-1016
▁contro	-1017
▁toward	-1018
▁serious	-1019
▁chairman	-1020
000	-1021
▁jo	-1022
▁exchanges	-1023
▁necessary	-1024
zh	-1025
▁mut	-1026
ession	-1027
▁speech	-1028
▁respect	-1029
▁fundamental	-1030
ady	-1031
cond	-1032
ibet	-1033
osed	-1034
▁exer	-1035
ficult	-1036
▁found	-1037
▁constru	-1038
▁difficult	-1039
▁represents	-1040
▁br	-1041
▁ant	-1042
▁des	-1043
▁sum	-1044
▁wto	-1045
▁show	-1046
▁study	-1047
▁tibet	-1048
▁nation	-1049
▁promote	-1050
▁measures	-1051
▁departments	-1052
sp	-1053
com	-1054
▁ev	-1055
ives	-1056
▁every	-1057
▁field	-1058
▁group	-1059
▁means	-1060
▁provin	-1061
▁scient	-1062
▁superv	-1063
▁socialist	-1064
ds	-1065
arch	-1066
year	-1067
▁add	-1068
▁tur	-1069
▁basic	-1070
▁produ	-1071
▁product	-1072
▁systems	-1073
bal	-1074
nel	-1075
lear	-1076
ting	-1077
▁col	-1078
▁inf	-1079
▁ref	-1080
ivers	-1081
ongji	-1082
▁adop	-1083
▁asia	-1084
▁thin	-1085
▁regul	-1086
▁growth	-1087
▁rongji	-1088
▁peaceful	-1089
▁management	-1090
▁motherland	-1091
▁beg	-1092
▁glo	-1093
▁hel	-1094
▁take	-1095
▁global	-1096
▁making	-1097
▁conduct	-1098
▁practice	-1099
gu	-1100
not	-1101
prk	-1102
▁open	-1103
▁weap	-1104
ferent	-1105
ference	-1106
▁secret	-1107
▁special	-1108
▁promoting	-1109
ploy	-1110
▁lin	-1111
▁tre	-1112
▁forward	-1113
als	-1114
irit	-1115
▁artic	-1116
▁spirit	-1117
ck	-1118
ots	-1119
ital	-1120
▁nor	-1121
▁sch	-1122
▁wang	-1123
▁repor	-1124
▁train	-1125
▁quality	-1126
▁scientific	-1127
ily	-1128
▁saf	-1129
itive	-1130
▁army	-1131
▁back	-1132
▁bene	-1133
portun	-1134
▁control	-1135
▁opportun	-1136
▁understanding	-1137
ien	-1138
lom	-1139
▁ban	-1140
▁chen	-1141
▁help	-1142
▁mass	-1143
▁soci	-1144
levant	-1145
ources	-1146
▁treat	-1147
▁second	-1148
▁missile	-1149
▁project	-1150
▁relevant	-1151
▁ir	-1152
▁ur	-1153
vere	-1154
▁sur	-1155
▁dprk	-1156
▁prem	-1157
▁agree	-1158
▁could	-1159
▁cannot	-1160
▁number	-1161
▁general	-1162
▁opening	-1163
▁society	-1164
▁investment	-1165
▁modernization	-1166
get	-1167
ates	-1168
▁dra	-1169
▁rec	-1170
▁whe	-1171
iplom	-1172
▁peng	-1173
▁reas	-1174
▁ties	-1175
▁yuan	-1176
▁local	-1177
▁those	-1178
▁times	-1179
▁levels	-1180
▁discuss	-1181
▁organiz	-1182
▁question	-1183
▁stressed	-1184
▁environment	-1185
wor	-1186
eric	-1187
ering	-1188
▁each	-1189
▁hard	-1190
▁know	-1191
▁exerc	-1192
▁fully	-1193
▁south	-1194
▁diplom	-1195
▁struct	-1196
▁attention	-1197
▁bl	-1198
just	-1199
▁ele	-1200
▁mon	-1201
▁hold	-1202
▁basis	-1203
▁mutual	-1204
▁council	-1205
uty	-1206
▁20	-1207
▁hop	-1208
ached	-1209
aking	-1210
▁four	-1211
▁kore	-1212
▁prof	-1213
▁serv	-1214
▁among	-1215
▁compet	-1216
▁process	-1217
▁policies	-1218
▁supervision	-1219
ife	-1220
ried	-1221
▁enh	-1222
▁neg	-1223
anced	-1224
▁views	-1225
▁strugg	-1226
▁japanese	-1227
▁developed	-1228
▁construction	-1229
▁ph	-1230
iven	-1231
▁inn	-1232
▁xin	-1233
ately	-1234
ricult	-1235
▁start	-1236
▁americ	-1237
▁billion	-1238
▁whether	-1239
▁agricult	-1240
▁secretary	-1241
▁vi	-1242
ents	-1243
iness	-1244
other	-1245
▁come	-1246
▁rese	-1247
▁never	-1248
▁article	-1249
▁increase	-1250
▁regional	-1251
▁different	-1252
▁historical	-1253
ants	-1254
▁dom	-1255
ously	-1256
ically	-1257
▁attend	-1258
▁office	-1259
▁another	-1260
▁science	-1261
▁personnel	-1262
▁leadership	-1263
▁ideological	-1264
xt	-1265
ale	-1266
men	-1267
unch	-1268
▁pay	-1269
▁tot	-1270
▁corre	-1271
▁training	-1272
▁following	-1273
▁including	-1274
▁administration	-1275
ular	-1276
▁cri	-1277
▁key	-1278
▁sol	-1279
istics	-1280
▁strait	-1281
▁weapons	-1282
ell	-1283
med	-1284
ivil	-1285
self	-1286
▁eng	-1287
▁ens	-1288
▁npc	-1289
alled	-1290
▁civil	-1291
▁change	-1292
pa	-1293
hai	-1294
reh	-1295
cific	-1296
urope	-1297
▁poss	-1298
ensive	-1299
▁legal	-1300
▁integr	-1301
▁leading	-1302
▁exchange	-1303
ged	-1304
▁fl	-1305
▁her	-1306
▁say	-1307
acter	-1308
▁dist	-1309
▁rest	-1310
utions	-1311
▁cause	-1312
▁deleg	-1313
▁exist	-1314
▁water	-1315
▁before	-1316
▁results	-1317
▁resources	-1318
▁therefore	-1319
hu	-1320
ness	-1321
ront	-1322
▁anti	-1323
▁dial	-1324
▁emph	-1325
▁hope	-1326
▁kind	-1327
▁indic	-1328
▁demand	-1329
▁sovere	-1330
▁compreh	-1331
▁correct	-1332
▁premier	-1333
▁congress	-1334
▁incident	-1335
▁concerned	-1336
ying	-1337
▁big	-1338
▁day	-1339
▁rap	-1340
▁alth	-1341
▁does	-1342
▁territ	-1343
▁without	-1344
▁although	-1345
▁industry	-1346
▁character	-1347
▁responsib	-1348
ird	-1349
▁po	-1350
▁comb	-1351
▁comr	-1352
▁like	-1353
▁opin	-1354
▁close	-1355
▁rapid	-1356
▁compan	-1357
▁fields	-1358
▁theory	-1359
▁particip	-1360
▁positive	-1361
▁research	-1362
▁conference	-1363
ty	-1364
rupt	-1365
▁jud	-1366
iding	-1367
▁arms	-1368
▁along	-1369
▁appro	-1370
▁innov	-1371
▁space	-1372
▁whole	-1373
▁nations	-1374
▁overall	-1375
▁complete	-1376
▁cultural	-1377
▁struggle	-1378
▁achievements	-1379
▁organizations	-1380
arm	-1381
ord	-1382
▁es	-1383
ared	-1384
rial	-1385
thod	-1386
▁did	-1387
▁occ	-1388
▁ret	-1389
▁xia	-1390
ained	-1391
thing	-1392
▁news	-1393
▁safe	-1394
▁stri	-1395
▁third	-1396
▁course	-1397
▁democr	-1398
▁changes	-1399
▁strategy	-1400
ush	-1401
▁lee	-1402
▁mor	-1403
▁par	-1404
ently	-1405
▁full	-1406
▁trad	-1407
▁wish	-1408
▁launch	-1409
▁leader	-1410
▁method	-1411
▁problem	-1412
▁business	-1413
▁position	-1414
▁signific	-1415
▁diplomatic	-1416
▁technological	-1417
lf	-1418
su	-1419
▁6	-1420
nty	-1421
ove	-1422
uch	-1423
reme	-1424
road	-1425
used	-1426
▁cre	-1427
▁mid	-1428
▁tax	-1429
▁tru	-1430
ignty	-1431
pects	-1432
ready	-1433
round	-1434
▁lear	-1435
▁prev	-1436
selves	-1437
▁india	-1438
▁trend	-1439
▁dialog	-1440
▁europe	-1441
▁instit	-1442
▁matter	-1443
▁proper	-1444
▁reason	-1445
▁already	-1446
▁capital	-1447
▁sovereignty	-1448
ix	-1449
md	-1450
ior	-1451
▁off	-1452
▁pat	-1453
ising	-1454
▁city	-1455
▁deal	-1456
▁head	-1457
▁marx	-1458
▁press	-1459
▁contact	-1460
▁protect	-1461
▁established	-1462
hui	-1463
ken	-1464
▁pa	-1465
ages	-1466
alth	-1467
ceed	-1468
▁val	-1469
erity	-1470
estic	-1471
guard	-1472
izing	-1473
▁join	-1474
▁shui	-1475
▁media	-1476
▁rural	-1477
▁total	-1478
▁units	-1479
▁advanced	-1480
▁thinking	-1481
▁safeguard	-1482
▁successful	-1483
▁understand	-1484
ee	-1485
ner	-1486
bian	-1487
ices	-1488
▁200	-1489
▁jun	-1490
▁vig	-1491
▁wel	-1492
inton	-1493
▁life	-1494
▁bring	-1495
▁creat	-1496
▁north	-1497
▁action	-1498
▁emphas	-1499
▁impact	-1500
▁clinton	-1501
▁russian	-1502
▁willing	-1503
▁effective	-1504
▁increasing	-1505
▁strengthening	-1506
hua	-1507
,000	-1508
ised	-1509
itud	-1510
▁sal	-1511
utely	-1512
▁crit	-1513
▁infl	-1514
▁self	-1515
▁task	-1516
anghai	-1517
▁equip	-1518
▁masses	-1519
▁member	-1520
▁contrib	-1521
▁univers	-1522
▁constant	-1523
▁domestic	-1524
▁shanghai	-1525
▁officials	-1526
term	-1527
▁ago	-1528
▁pop	-1529
▁move	-1530
▁step	-1531
▁accom	-1532
▁allow	-1533
▁benef	-1534
▁things	-1535
▁believe	-1536
▁reached	-1537
▁organization	-1538
aly	-1539
erg	-1540
atis	-1541
▁nmd	-1542
▁pal	-1543
▁tra	-1544
▁exam	-1545
▁expl	-1546
▁firm	-1547
▁vice	-1548
olding	-1549
▁armed	-1550
▁zhang	-1551
▁summit	-1552
▁decision	-1553
▁standard	-1554
▁standing	-1555
▁foundation	-1556
▁operations	-1557
▁21	-1558
ider	-1559
▁met	-1560
▁net	-1561
atisf	-1562
jiang	-1563
ctions	-1564
▁chall	-1565
▁elect	-1566
ination	-1567
ulation	-1568
▁adopted	-1569
▁agreement	-1570
▁delegation	-1571
ail	-1572
oun	-1573
▁cam	-1574
▁del	-1575
▁fam	-1576
istic	-1577
▁land	-1578
▁line	-1579
▁your	-1580
ission	-1581
▁asian	-1582
▁small	-1583
▁trust	-1584
▁ensure	-1585
▁stress	-1586
▁circles	-1587
▁visited	-1588
▁election	-1589
▁reporter	-1590
▁democratic	-1591
▁industrial	-1592
ng	-1593
wh	-1594
alf	-1595
ave	-1596
gra	-1597
▁ear	-1598
itude	-1599
ledge	-1600
ought	-1601
▁fail	-1602
▁early	-1603
▁influ	-1604
▁separ	-1605
▁shall	-1606
▁where	-1607
▁carried	-1608
▁command	-1609
▁addition	-1610
▁exercise	-1611
▁structure	-1612
▁cooperative	-1613
▁agricultural	-1614
ins	-1615
pic	-1616
por	-1617
▁ca	-1618
chan	-1619
▁cle	-1620
▁mac	-1621
▁uph	-1622
ified	-1623
iving	-1624
▁1999	-1625
▁decl	-1626
▁give	-1627
▁issu	-1628
▁read	-1629
▁given	-1630
▁remar	-1631
▁young	-1632
▁entire	-1633
▁mechan	-1634
▁minist	-1635
▁object	-1636
▁million	-1637
▁session	-1638
▁regulations	-1639
▁implementation	-1640
sh	-1641
dle	-1642
ool	-1643
▁ju	-1644
ping	-1645
ples	-1646
▁fre	-1647
▁old	-1648
orial	-1649
▁able	-1650
▁east	-1651
▁laws	-1652
▁norm	-1653
▁sect	-1654
▁soon	-1655
▁viol	-1656
▁west	-1657
▁build	-1658
▁prosp	-1659
▁better	-1660
▁export	-1661
▁higher	-1662
▁taking	-1663
▁treaty	-1664
▁account	-1665
▁peoples	-1666
▁working	-1667
▁dialogue	-1668
▁possible	-1669
▁equipment	-1670
▁tradition	-1671
▁department	-1672
▁protection	-1673
▁themselves	-1674
▁requirements	-1675
▁establishment	-1676
▁responsibility	-1677
way	-1678
▁my	-1679
rael	-1680
work	-1681
▁abs	-1682
▁cas	-1683
▁let	-1684
▁low	-1685
▁ori	-1686
▁wei	-1687
▁grad	-1688
▁here	-1689
▁once	-1690
▁qian	-1691
▁teng	-1692
▁want	-1693
uclear	-1694
▁asked	-1695
▁facts	-1696
▁oppos	-1697
▁plane	-1698
▁relig	-1699
▁tasks	-1700
▁expand	-1701
▁experi	-1702
▁nature	-1703
▁express	-1704
▁achieved	-1705
▁significance	-1706
▁characteristics	-1707
ef	-1708
sc	-1709
ick	-1710
ium	-1711
ange	-1712
ouse	-1713
▁adh	-1714
▁eth	-1715
▁mom	-1716
▁sim	-1717
arant	-1718
istan	-1719
veral	-1720
▁then	-1721
▁thus	-1722
▁begin	-1723
▁retur	-1724
▁short	-1725
▁stage	-1726
olution	-1727
▁organs	-1728
▁palest	-1729
▁enhance	-1730
▁nuclear	-1731
▁several	-1732
▁ministry	-1733
▁socialism	-1734
▁production	-1735
▁relationship	-1736
▁globalization	-1737
▁8	-1738
bod	-1739
▁er	-1740
▁lu	-1741
aged	-1742
▁enc	-1743
▁few	-1744
▁sen	-1745
▁she	-1746
▁spl	-1747
ather	-1748
owned	-1749
▁espe	-1750
▁face	-1751
▁feel	-1752
▁pass	-1753
▁peas	-1754
▁turn	-1755
cially	-1756
ending	-1757
▁forum	-1758
▁invol	-1759
▁deputy	-1760
▁moment	-1761
▁guarant	-1762
▁parties	-1763
▁provide	-1764
▁recently	-1765
▁especially	-1766
▁responsible	-1767
▁opportunities	-1768
mar	-1769
ops	-1770
▁50	-1771
▁cr	-1772
empt	-1773
ines	-1774
less	-1775
line	-1776
raft	-1777
▁aut	-1778
▁half	-1779
▁init	-1780
▁july	-1781
▁mean	-1782
▁redu	-1783
▁repe	-1784
▁test	-1785
erated	-1786
▁speed	-1787
▁taken	-1788
▁accept	-1789
▁accord	-1790
▁attach	-1791
▁commer	-1792
▁crimin	-1793
▁expect	-1794
▁middle	-1795
▁prepar	-1796
▁propag	-1797
▁series	-1798
▁threat	-1799
▁within	-1800
▁constit	-1801
▁extreme	-1802
▁reports	-1803
▁consider	-1804
▁revolution	-1805
▁competition	-1806
ec	-1807
att	-1808
ief	-1809
ood	-1810
oss	-1811
str	-1812
ened	-1813
ighb	-1814
iles	-1815
▁dri	-1816
▁fav	-1817
▁foc	-1818
▁gra	-1819
▁pen	-1820
▁tro	-1821
ances	-1822
ensus	-1823
uties	-1824
▁brit	-1825
▁place	-1826
atively	-1827
▁korean	-1828
▁progra	-1829
▁propos	-1830
justment	-1831
▁culture	-1832
▁greater	-1833
▁realize	-1834
▁contacts	-1835
▁indicated	-1836
▁influence	-1837
▁innovation	-1838
aq	-1839
sw	-1840
xi	-1841
for	-1842
joy	-1843
ten	-1844
head	-1845
medi	-1846
racy	-1847
ruct	-1848
▁bri	-1849
▁rok	-1850
ended	-1851
▁conv	-1852
▁used	-1853
atives	-1854
ential	-1855
iously	-1856
▁analy	-1857
▁clear	-1858
▁guang	-1859
▁vigor	-1860
▁health	-1861
▁school	-1862
▁stable	-1863
▁status	-1864
▁carrying	-1865
▁products	-1866
▁province	-1867
▁consensus	-1868
▁knowledge	-1869
▁governments	-1870
▁administrative	-1871
▁7	-1872
▁9	-1873
avy	-1874
emy	-1875
oti	-1876
▁el	-1877
ades	-1878
come	-1879
ency	-1880
over	-1881
▁bor	-1882
▁bre	-1883
▁nin	-1884
▁rul	-1885
erous	-1886
ished	-1887
▁2000	-1888
▁days	-1889
▁dest	-1890
▁iraq	-1891
▁much	-1892
▁sett	-1893
▁suff	-1894
rought	-1895
▁deter	-1896
▁enjoy	-1897
▁facing	-1898
▁groups	-1899
▁issued	-1900
▁negoti	-1901
▁comrade	-1902
▁marxism	-1903
▁attitude	-1904
▁repeated	-1905
▁commission	-1906
▁enterprise	-1907
ne	-1908
oo	-1909
ime	-1910
nic	-1911
ogn	-1912
▁fu	-1913
▁sl	-1914
▁wu	-1915
ably	-1916
▁cpp	-1917
▁eas	-1918
▁ess	-1919
▁urg	-1920
scale	-1921
▁arri	-1922
▁left	-1923
▁push	-1924
▁tang	-1925
▁favor	-1926
▁hopes	-1927
▁prime	-1928
▁split	-1929
▁affect	-1930
▁create	-1931
▁deploy	-1932
▁recogn	-1933
▁remain	-1934
▁satisf	-1935
▁clearly	-1936
▁collect	-1937
▁methods	-1938
▁regions	-1939
▁profound	-1940
▁democracy	-1941
▁territory	-1942
▁constantly	-1943
▁prosperity	-1944
▁comprehensive	-1945
up	-1946
ock	-1947
▁15	-1948
▁av	-1949
anda	-1950
ased	-1951
ored	-1952
▁beh	-1953
▁bud	-1954
▁cru	-1955
▁get	-1956
▁jia	-1957
craft	-1958
ences	-1959
▁disp	-1960
▁june	-1961
▁paid	-1962
▁post	-1963
▁toge	-1964
▁took	-1965
▁cppcc	-1966
▁fight	-1967
▁funds	-1968
▁links	-1969
▁march	-1970
▁ninth	-1971
▁noted	-1972
▁putin	-1973
▁unity	-1974
itation	-1975
▁combat	-1976
▁ethnic	-1977
▁formul	-1978
▁israel	-1979
▁normal	-1980
▁xinhua	-1981
▁attempt	-1982
▁workers	-1983
▁handling	-1984
▁experience	-1985
▁opportunity	-1986
▁ru	-1987
aper	-1988
omen	-1989
qing	-1990
unic	-1991
▁obs	-1992
▁tri	-1993
▁win	-1994
cient	-1995
ichen	-1996
ology	-1997
riots	-1998
tical	-1999
▁appe	-2000
▁cold	-2001
▁core	-2002
▁less	-2003
▁mult	-2004
▁next	-2005
idence	-2006
▁broad	-2007
▁mater	-2008
▁recon	-2009
▁center	-2010
▁compat	-2011
▁intens	-2012
▁island	-2013
▁mainly	-2014
▁qichen	-2015
▁material	-2016
▁together	-2017
▁extremely	-2018
▁improvement	-2019
▁contributions	-2020
acy	-2021
ban	-2022
iqu	-2023
kes	-2024
nam	-2025
atch	-2026
iber	-2027
▁job	-2028
▁non	-2029
▁ste	-2030
▁tar	-2031
onstr	-2032
▁care	-2033
▁case	-2034
▁goal	-2035
▁happ	-2036
▁rece	-2037
▁sent	-2038
▁town	-2039
▁upon	-2040
called	-2041
▁above	-2042
▁guide	-2043
▁needs	-2044
▁pursu	-2045
▁sales	-2046
ruption	-2047
▁assist	-2048
▁fourth	-2049
▁immedi	-2050
▁interv	-2051
▁itself	-2052
▁played	-2053
▁points	-2054
▁strict	-2055
▁troops	-2056
▁accompl	-2057
▁company	-2058
▁experts	-2059
▁learned	-2060
▁aircraft	-2061
▁demonstr	-2062
▁missiles	-2063
▁provided	-2064
▁republic	-2065
▁continued	-2066
▁capability	-2067
▁committees	-2068
▁principles	-2069
▁propaganda	-2070
▁provincial	-2071
▁compatriots	-2072
▁maintaining	-2073
zhi	-2074
▁ty	-2075
▁yu	-2076
comm	-2077
seas	-2078
wing	-2079
▁apr	-2080
▁div	-2081
▁oct	-2082
▁sea	-2083
▁sha	-2084
aring	-2085
intao	-2086
level	-2087
oring	-2088
thers	-2089
▁call	-2090
▁based	-2091
▁cases	-2092
▁doing	-2093
▁month	-2094
▁critic	-2095
▁jintao	-2096
▁concept	-2097
▁factors	-2098
▁opinion	-2099
▁service	-2100
▁thought	-2101
▁american	-2102
▁experien	-2103
▁officers	-2104
▁overseas	-2105
▁projects	-2106
▁community	-2107
▁accordance	-2108
▁maintained	-2109
▁relatively	-2110
na	-2111
ild	-2112
oub	-2113
▁fr	-2114
fect	-2115
ging	-2116
ners	-2117
rely	-2118
side	-2119
tech	-2120
▁100	-2121
▁bur	-2122
▁cra	-2123
▁fun	-2124
▁gre	-2125
▁lab	-2126
▁lim	-2127
▁ren	-2128
▁why	-2129
oming	-2130
▁coll	-2131
▁fall	-2132
▁parl	-2133
▁pros	-2134
▁warm	-2135
action	-2136
isions	-2137
▁front	-2138
▁grain	-2139
▁house	-2140
▁plans	-2141
▁sense	-2142
▁words	-2143
igation	-2144
▁amount	-2145
▁announ	-2146
▁counter	-2147
▁jointly	-2148
▁program	-2149
▁actively	-2150
▁challeng	-2151
▁improving	-2152
▁religious	-2153
▁reporters	-2154
▁generation	-2155
▁resolutely	-2156
▁implementing	-2157
▁negotiations	-2158
aff	-2159
ats	-2160
gem	-2161
ula	-2162
cipl	-2163
ison	-2164
mber	-2165
▁aug	-2166
▁feb	-2167
▁mob	-2168
▁run	-2169
gemon	-2170
lying	-2171
▁answ	-2172
▁area	-2173
▁batt	-2174
▁ever	-2175
▁host	-2176
▁keep	-2177
▁absol	-2178
▁advoc	-2179
▁afric	-2180
▁chief	-2181
▁actual	-2182
▁budget	-2183
▁cities	-2184
▁firmly	-2185
▁neighb	-2186
▁parlia	-2187
▁welcom	-2188
▁hegemon	-2189
▁criminal	-2190
▁majority	-2191
▁peasants	-2192
▁communist	-2193
▁guarantee	-2194
▁increased	-2195
▁mechanism	-2196
▁representatives	-2197
ex	-2198
cel	-2199
den	-2200
mon	-2201
ped	-2202
ton	-2203
▁dr	-2204
ient	-2205
oura	-2206
read	-2207
▁bal	-2208
▁cho	-2209
▁den	-2210
▁ger	-2211
▁hon	-2212
fully	-2213
ggest	-2214
range	-2215
▁acad	-2216
▁appl	-2217
▁laid	-2218
▁look	-2219
▁sing	-2220
ancing	-2221
▁contr	-2222
▁grass	-2223
▁macao	-2224
pacific	-2225
pection	-2226
▁advant	-2227
▁rather	-2228
ensively	-2229
standing	-2230
▁brought	-2231
▁consult	-2232
▁network	-2233
▁perform	-2234
▁reflect	-2235
▁related	-2236
▁started	-2237
▁suggest	-2238
▁european	-2239
▁internet	-2240
▁beginning	-2241
▁objective	-2242
▁operation	-2243
▁questions	-2244
▁emphasized	-2245
iy	-2246
ash	-2247
gin	-2248
ify	-2249
lus	-2250
oon	-2251
ume	-2252
vey	-2253
▁ce	-2254
▁ge	-2255
ator	-2256
fill	-2257
ober	-2258
ooth	-2259
utes	-2260
▁dev	-2261
▁due	-2262
▁fig	-2263
▁ple	-2264
oping	-2265
while	-2266
▁bure	-2267
▁deng	-2268
▁fair	-2269
▁prot	-2270
▁purp	-2271
▁stip	-2272
ground	-2273
insula	-2274
ublish	-2275
▁accel	-2276
▁ahead	-2277
▁coord	-2278
▁event	-2279
▁hoped	-2280
▁korea	-2281
▁raise	-2282
▁share	-2283
▁shows	-2284
▁called	-2285
▁compon	-2286
▁employ	-2287
▁highly	-2288
▁smooth	-2289
▁stance	-2290
▁consist	-2291
▁greatly	-2292
▁october	-2293
▁outside	-2294
▁station	-2295
▁internal	-2296
▁currently	-2297
▁expanding	-2298
▁peninsula	-2299
▁challenges	-2300
▁commercial	-2301
▁localities	-2302
▁effectively	-2303
▁traditional	-2304
▁constitution	-2305
▁difficulties	-2306
go	-2307
ars	-2308
▁sw	-2309
cell	-2310
ians	-2311
imin	-2312
ived	-2313
▁six	-2314
▁sty	-2315
aging	-2316
iting	-2317
ority	-2318
▁asse	-2319
▁fine	-2320
▁harm	-2321
▁name	-2322
▁reit	-2323
▁seek	-2324
▁stop	-2325
▁text	-2326
ularly	-2327
▁april	-2328
▁brief	-2329
▁entry	-2330
▁going	-2331
▁initi	-2332
▁urban	-2333
akistan	-2334
ication	-2335
ilities	-2336
▁consum	-2337
▁others	-2338
▁saying	-2339
▁theore	-2340
▁decided	-2341
▁fulfill	-2342
▁holding	-2343
▁hongzhi	-2344
▁natural	-2345
▁publish	-2346
▁remarks	-2347
▁confront	-2348
▁deputies	-2349
▁determin	-2350
▁gradually	-2351
▁integrity	-2352
▁meanwhile	-2353
ev	-2354
wa	-2355
lym	-2356
pal	-2357
roy	-2358
▁16	-2359
▁40	-2360
gest	-2361
ined	-2362
most	-2363
zhou	-2364
▁bid	-2365
▁loo	-2366
▁mot	-2367
▁wen	-2368
▁yet	-2369
ented	-2370
ource	-2371
paign	-2372
roots	-2373
▁agre	-2374
▁olym	-2375
▁priv	-2376
▁rate	-2377
▁repl	-2378
▁rich	-2379
▁road	-2380
▁tele	-2381
▁thor	-2382
▁wars	-2383
▁went	-2384
▁zhao	-2385
▁adopt	-2386
▁began	-2387
▁class	-2388
▁energ	-2389
▁staff	-2390
▁using	-2391
▁adhere	-2392
▁caused	-2393
▁comput	-2394
▁excell	-2395
▁having	-2396
▁living	-2397
▁origin	-2398
▁stated	-2399
▁target	-2400
▁uphold	-2401
ferences	-2402
▁advance	-2403
▁aggress	-2404
▁benefit	-2405
▁created	-2406
▁healthy	-2407
▁reality	-2408
▁campaign	-2409
▁opinions	-2410
▁pakistan	-2411
▁services	-2412
▁visiting	-2413
▁xinjiang	-2414
▁companies	-2415
▁practical	-2416
▁regarding	-2417
▁inspection	-2418
▁productive	-2419
▁repeatedly	-2420
▁immediately	-2421
▁theoretical	-2422
▁continuously	-2423
▁particularly	-2424
▁safeguarding	-2425
aim	-2426
iet	-2427
ond	-2428
pir	-2429
▁eu	-2430
▁ey	-2431
▁km	-2432
bass	-2433
erve	-2434
isis	-2435
rict	-2436
wide	-2437
▁cub	-2438
▁deb	-2439
▁ord	-2440
▁ris	-2441
ament	-2442
aster	-2443
ators	-2444
ember	-2445
icial	-2446
japan	-2447
▁duty	-2448
▁farm	-2449
▁jian	-2450
▁prec	-2451
▁sold	-2452
▁spok	-2453
▁vict	-2454
▁break	-2455
▁draft	-2456
▁enemy	-2457
▁kinds	-2458
▁paper	-2459
▁terms	-2460
▁think	-2461
▁white	-2462
▁attack	-2463
▁august	-2464
▁circum	-2465
▁crisis	-2466
▁energy	-2467
▁stipul	-2468
▁undert	-2469
▁ability	-2470
▁changed	-2471
▁discipl	-2472
▁morning	-2473
▁popular	-2474
▁purpose	-2475
▁rapidly	-2476
▁reforms	-2477
▁resolve	-2478
▁sectors	-2479
▁subject	-2480
▁actually	-2481
▁attended	-2482
▁becoming	-2483
▁expected	-2484
▁moreover	-2485
▁partners	-2486
▁stresses	-2487
▁certainly	-2488
▁prospects	-2489
▁seriously	-2490
▁technical	-2491
▁accomplish	-2492
▁completely	-2493
▁particular	-2494
▁structural	-2495
▁increasingly	-2496
▁preparations	-2497
eed	-2498
ges	-2499
isc	-2500
▁ut	-2501
▁wa	-2502
eder	-2503
ired	-2504
ivid	-2505
olid	-2506
uted	-2507
▁198	-2508
▁ang	-2509
▁deg	-2510
▁fra	-2511
▁lan	-2512
▁pot	-2513
▁san	-2514
▁top	-2515
ories	-2516
ruary	-2517
▁came	-2518
▁late	-2519
▁pred	-2520
▁shen	-2521
▁tour	-2522
▁trem	-2523
aching	-2524
ficial	-2525
ifying	-2526
▁added	-2527
▁effic	-2528
▁frequ	-2529
▁grand	-2530
▁labor	-2531
▁quite	-2532
▁sound	-2533
ciation	-2534
iveness	-2535
▁agreed	-2536
▁around	-2537
▁powell	-2538
▁select	-2539
▁aspects	-2540
▁closely	-2541
▁himself	-2542
▁proceed	-2543
▁elements	-2544
▁february	-2545
▁politics	-2546
▁properly	-2547
▁studying	-2548
▁thorough	-2549
▁xiaoping	-2550
▁accession	-2551
▁standards	-2552
▁conducting	-2553
▁discussion	-2554
▁invitation	-2555
▁university	-2556
▁continually	-2557
▁implemented	-2558
▁outstanding	-2559
▁comprehensively	-2560
uf	-2561
oke	-2562
▁18	-2563
cies	-2564
ests	-2565
xuan	-2566
▁ara	-2567
▁guo	-2568
▁har	-2569
▁jin	-2570
▁obv	-2571
▁pla	-2572
▁prc	-2573
▁too	-2574
atory	-2575
centr	-2576
iency	-2577
point	-2578
▁asso	-2579
▁best	-2580
▁exec	-2581
▁find	-2582
▁idea	-2583
▁nato	-2584
▁qing	-2585
▁rule	-2586
▁says	-2587
▁seen	-2588
▁court	-2589
▁eight	-2590
▁facil	-2591
▁later	-2592
▁rules	-2593
▁border	-2594
▁design	-2595
▁german	-2596
▁nearly	-2597
▁planes	-2598
▁proced	-2599
▁really	-2600
▁signed	-2601
▁spokes	-2602
▁thanks	-2603
▁arrange	-2604
▁tremend	-2605
▁concentr	-2606
▁historic	-2607
▁negative	-2608
▁palestin	-2609
▁strictly	-2610
▁conducted	-2611
▁spiritual	-2612
▁transform	-2613
▁corruption	-2614
▁facilities	-2615
▁industries	-2616
▁opposition	-2617
▁reiterated	-2618
▁resolution	-2619
▁vigorously	-2620
▁agriculture	-2621
▁differences	-2622
▁educational	-2623
▁requirement	-2624
▁territorial	-2625
▁strengthened	-2626
▁confrontation	-2627
.2	-2628
by	-2629
mb	-2630
ger	-2631
hib	-2632
▁12	-2633
▁30	-2634
aled	-2635
kind	-2636
onom	-2637
opri	-2638
ured	-2639
▁bar	-2640
▁bra	-2641
▁lat	-2642
▁led	-2643
▁pun	-2644
▁ran	-2645
atell	-2646
etnam	-2647
force	-2648
ither	-2649
▁bang	-2650
▁cere	-2651
▁dang	-2652
▁evil	-2653
▁gave	-2654
▁gras	-2655
▁lies	-2656
▁mill	-2657
▁ship	-2658
▁tian	-2659
▁told	-2660
▁writ	-2661
▁yang	-2662
▁yong	-2663
ourage	-2664
▁claim	-2665
▁coast	-2666
▁drive	-2667
▁forms	-2668
▁occas	-2669
▁round	-2670
▁serve	-2671
▁truth	-2672
▁value	-2673
ception	-2674
▁across	-2675
▁battle	-2676
▁became	-2677
▁behind	-2678
▁deeply	-2679
▁family	-2680
▁manner	-2681
▁obtain	-2682
▁police	-2683
▁return	-2684
▁strive	-2685
▁wishes	-2686
japanese	-2687
▁arrived	-2688
▁autonom	-2689
▁ceremon	-2690
▁essence	-2691
▁jiaxuan	-2692
▁looking	-2693
▁markets	-2694
▁separat	-2695
▁vietnam	-2696
▁welcome	-2697
▁attaches	-2698
▁circumst	-2699
▁comrades	-2700
▁consolid	-2701
▁judicial	-2702
▁planning	-2703
▁proposed	-2704
▁rational	-2705
▁received	-2706
▁component	-2707
▁favorable	-2708
▁functions	-2709
▁interview	-2710
▁organized	-2711
▁population	-2712
▁throughout	-2713
▁tremendous	-2714
be	-2715
ih	-2716
io	-2717
ery	-2718
isl	-2719
oms	-2720
per	-2721
sts	-2722
tim	-2723
val	-2724
▁da	-2725
ayed	-2726
ffic	-2727
iers	-2728
ming	-2729
oney	-2730
xing	-2731
▁aim	-2732
▁avo	-2733
▁bes	-2734
▁cal	-2735
▁fle	-2736
▁kim	-2737
▁pil	-2738
▁sac	-2739
▁try	-2740
▁vot	-2741
eless	-2742
empor	-2743
ester	-2744
ronic	-2745
ufact	-2746
▁done	-2747
▁iran	-2748
▁phen	-2749
▁proc	-2750
▁sust	-2751
▁unit	-2752
▁ways	-2753
▁weak	-2754
ension	-2755
iation	-2756
propri	-2757
urance	-2758
▁scale	-2759
▁simil	-2760
▁style	-2761
essions	-2762
itality	-2763
ividual	-2764
ternoon	-2765
▁bureau	-2766
▁county	-2767
▁former	-2768
▁income	-2769
▁legisl	-2770
▁visits	-2771
iversary	-2772
▁acceler	-2773
▁allowed	-2774
▁appoint	-2775
▁britain	-2776
▁complic	-2777
▁conflic	-2778
▁destroy	-2779
▁distrib	-2780
▁entered	-2781
▁perfect	-2782
▁reconna	-2783
ilization	-2784
▁computer	-2785
▁launched	-2786
▁manufact	-2787
▁momentum	-2788
▁personal	-2789
▁phenomen	-2790
▁pressure	-2791
▁promoted	-2792
▁students	-2793
▁afternoon	-2794
▁statement	-2795
▁assistance	-2796
▁beneficial	-2797
▁concerning	-2798
▁individual	-2799
▁initiative	-2800
▁anniversary	-2801
▁circumstances	-2802
si	-2803
ply	-2804
put	-2805
ugg	-2806
▁17	-2807
▁23	-2808
▁24	-2809
▁il	-2810
▁yi	-2811
ique	-2812
sequ	-2813
▁bom	-2814
▁cit	-2815
▁dam	-2816
▁dpp	-2817
▁kmt	-2818
▁lot	-2819
▁sun	-2820
acity	-2821
duous	-2822
iance	-2823
inite	-2824
ouble	-2825
ption	-2826
▁1998	-2827
▁2001	-2828
▁desc	-2829
▁earn	-2830
▁feat	-2831
▁guid	-2832
▁list	-2833
▁loss	-2834
▁port	-2835
▁sept	-2836
▁trip	-2837
verage	-2838
▁bound	-2839
▁child	-2840
▁final	-2841
▁heavy	-2842
▁illeg	-2843
▁intro	-2844
▁light	-2845
▁money	-2846
▁scope	-2847
lection	-2848
▁failed	-2849
▁flight	-2850
▁handle	-2851
▁indeed	-2852
▁instru	-2853
▁search	-2854
▁senior	-2855
▁submar	-2856
▁arduous	-2857
▁demands	-2858
▁guiding	-2859
▁mankind	-2860
▁matters	-2861
▁olympic	-2862
▁persist	-2863
▁precise	-2864
▁schools	-2865
▁existing	-2866
▁guidance	-2867
▁previous	-2868
▁specific	-2869
▁americans	-2870
▁direction	-2871
▁published	-2872
▁september	-2873
▁something	-2874
▁spokesman	-2875
▁absolutely	-2876
▁background	-2877
▁collective	-2878
▁electronic	-2879
▁protecting	-2880
▁palestinian	-2881
▁undertaking	-2882
▁institutions	-2883
▁readjustment	-2884
▁successfully	-2885
▁representative	-2886
br	-2887
bs	-2888
ocu	-2889
osp	-2890
▁11	-2891
▁22	-2892
▁ec	-2893
aced	-2894
hing	-2895
ills	-2896
ones	-2897
▁---	-2898
▁det	-2899
▁jan	-2900
▁lit	-2901
▁rad	-2902
aries	-2903
imate	-2904
urred	-2905
▁cust	-2906
▁docu	-2907
▁doub	-2908
▁gain	-2909
▁mind	-2910
▁tact	-2911
mitted	-2912
▁abide	-2913
▁appre	-2914
▁crack	-2915
▁displ	-2916
▁ideas	-2917
▁imper	-2918
▁price	-2919
▁quick	-2920
▁stock	-2921
▁super	-2922
▁thing	-2923
▁treas	-2924
▁active	-2925
▁corpor	-2926
▁cultiv	-2927
▁elimin	-2928
▁engage	-2929
▁ground	-2930
▁longer	-2931
▁opened	-2932
▁passed	-2933
▁reduce	-2934
▁renmin	-2935
▁though	-2936
▁xiamen	-2937
▁yester	-2938
communic	-2939
▁attract	-2940
▁content	-2941
▁earnest	-2942
▁include	-2943
▁introdu	-2944
▁mission	-2945
▁opposed	-2946
▁prevent	-2947
▁private	-2948
▁reasons	-2949
▁approved	-2950
▁believed	-2951
▁benefits	-2952
▁directly	-2953
▁founding	-2954
▁greatest	-2955
▁property	-2956
▁reported	-2957
▁achieving	-2958
▁attending	-2959
▁authority	-2960
▁insurance	-2961
▁ministers	-2962
▁palestine	-2963
▁precisely	-2964
▁upholding	-2965
▁yesterday	-2966
▁communists	-2967
▁efficiency	-2968
▁complicated	-2969
▁civilization	-2970
▁technologies	-2971
▁telecommunic	-2972
▁environmental	-2973
kn	-2974
alt	-2975
cip	-2976
eds	-2977
ems	-2978
fer	-2979
sis	-2980
use	-2981
▁gl	-2982
ames	-2983
lood	-2984
ring	-2985
riot	-2986
uary	-2987
will	-2988
▁bod	-2989
▁cur	-2990
▁dal	-2991
▁era	-2992
▁nar	-2993
▁pra	-2994
▁squ	-2995
▁won	-2996
right	-2997
siung	-2998
verty	-2999
works	-3000
▁1997	-3001
▁bank	-3002
▁chan	-3003
▁cuba	-3004
▁eyes	-3005
▁sell	-3006
erving	-3007
▁aspir	-3008
▁banks	-3009
▁cheng	-3010
▁equal	-3011
▁guard	-3012
▁heads	-3013
▁heart	-3014
▁liber	-3015
▁purch	-3016
▁reach	-3017
▁risks	-3018
▁solve	-3019
▁theme	-3020
▁truly	-3021
hington	-3022
uggling	-3023
▁academ	-3024
▁arrest	-3025
▁belief	-3026
▁deepen	-3027
▁oppose	-3028
▁safety	-3029
▁sector	-3030
emporary	-3031
▁besides	-3032
▁british	-3033
▁conclus	-3034
▁crucial	-3035
▁finally	-3036
▁january	-3037
▁mention	-3038
▁patriot	-3039
▁poverty	-3040
▁regards	-3041
▁seeking	-3042
▁accident	-3043
▁believes	-3044
▁capacity	-3045
▁director	-3046
▁division	-3047
▁equality	-3048
▁meetings	-3049
▁announced	-3050
▁conscient	-3051
▁exercises	-3052
▁potential	-3053
▁realizing	-3054
▁recognize	-3055
▁accounting	-3056
▁adjustment	-3057
▁advantages	-3058
▁aggression	-3059
▁confidence	-3060
▁procedures	-3061
▁washington	-3062
▁distribution	-3063
▁establishing	-3064
bi	-3065
bu	-3066
fe	-3067
ky	-3068
aoh	-3069
elt	-3070
hus	-3071
orn	-3072
dial	-3073
enge	-3074
enth	-3075
husi	-3076
isms	-3077
ival	-3078
olar	-3079
ream	-3080
rete	-3081
▁195	-3082
▁ase	-3083
▁bon	-3084
▁bro	-3085
▁fuj	-3086
▁liu	-3087
▁nav	-3088
▁son	-3089
▁vir	-3090
inent	-3091
ribed	-3092
▁base	-3093
▁clos	-3094
▁desp	-3095
▁figh	-3096
▁fire	-3097
▁home	-3098
▁huge	-3099
▁lack	-3100
▁live	-3101
▁navy	-3102
▁poor	-3103
▁reve	-3104
▁rise	-3105
▁room	-3106
▁talk	-3107
▁wife	-3108
▁zhou	-3109
▁built	-3110
▁chile	-3111
▁focus	-3112
▁freed	-3113
▁holds	-3114
▁lives	-3115
▁model	-3116
▁reven	-3117
▁solid	-3118
▁subst	-3119
▁taxes	-3120
▁teach	-3121
▁telev	-3122
▁union	-3123
ictions	-3124
quality	-3125
▁abroad	-3126
▁almost	-3127
▁attain	-3128
▁defend	-3129
▁letter	-3130
▁medium	-3131
▁respon	-3132
▁review	-3133
▁spread	-3134
▁actions	-3135
▁consequ	-3136
▁cordial	-3137
▁customs	-3138
▁dealing	-3139
▁eastern	-3140
▁enthusi	-3141
▁lanqing	-3142
▁persons	-3143
▁appropri	-3144
▁attached	-3145
▁concrete	-3146
▁declared	-3147
▁ideology	-3148
▁proposal	-3149
▁restruct	-3150
▁speaking	-3151
▁transfer	-3152
▁vitality	-3153
▁basically	-3154
▁challenge	-3155
▁collision	-3156
▁deepening	-3157
▁economies	-3158
▁enhancing	-3159
▁intensify	-3160
▁principal	-3161
▁resolving	-3162
▁supported	-3163
▁agreements	-3164
▁discipline	-3165
▁application	-3166
▁partnership	-3167
▁unification	-3168
▁arrangements	-3169
▁investigation	-3170
apt	-3171
mos	-3172
pan	-3173
pec	-3174
▁ve	-3175
body	-3176
fare	-3177
ires	-3178
ores	-3179
part	-3180
uous	-3181
vert	-3182
▁abm	-3183
▁chi	-3184
▁gap	-3185
▁gun	-3186
▁log	-3187
▁unf	-3188
▁unp	-3189
▁unt	-3190
arian	-3191
endit	-3192
erted	-3193
inary	-3194
ining	-3195
iscal	-3196
mosph	-3197
south	-3198
utive	-3199
▁away	-3200
▁debt	-3201
▁dece	-3202
▁gang	-3203
▁jour	-3204
▁nove	-3205
▁obst	-3206
▁plen	-3207
▁rele	-3208
▁sinc	-3209
▁vill	-3210
▁virt	-3211
ansion	-3212
employ	-3213
icians	-3214
▁bonds	-3215
▁boost	-3216
▁cadre	-3217
▁death	-3218
▁deeds	-3219
▁feder	-3220
▁leave	-3221
▁obser	-3222
▁often	-3223
▁ready	-3224
▁shown	-3225
▁wants	-3226
initely	-3227
issance	-3228
theless	-3229
▁adjust	-3230
▁convey	-3231
▁depend	-3232
▁disarm	-3233
▁fiscal	-3234
▁gained	-3235
▁months	-3236
▁perman	-3237
▁please	-3238
▁predic	-3239
▁proven	-3240
▁showed	-3241
▁talent	-3242
▁weapon	-3243
▁african	-3244
▁atmosph	-3245
▁bearing	-3246
▁contrad	-3247
▁despite	-3248
▁enforce	-3249
▁example	-3250
▁freedom	-3251
▁largest	-3252
▁limited	-3253
▁measure	-3254
▁partner	-3255
▁pattern	-3256
▁similar	-3257
▁warfare	-3258
▁alliance	-3259
▁ceremony	-3260
▁comments	-3261
▁expendit	-3262
▁fighting	-3263
▁improved	-3264
▁involved	-3265
▁mutually	-3266
▁november	-3267
▁produced	-3268
▁restrict	-3269
▁sessions	-3270
▁soldiers	-3271
▁construct	-3272
▁expansion	-3273
▁generally	-3274
▁occasions	-3275
▁sincerity	-3276
▁separatist	-3277
▁statistics	-3278
▁supporting	-3279
▁examination	-3280
▁presidential	-3281
▁restructuring	-3282
bo	-3283
de	-3284
dp	-3285
ma	-3286
rug	-3287
sec	-3288
the	-3289
zao	-3290
▁1.	-3291
▁13	-3292
▁27	-3293
▁29	-3294
▁ji	-3295
▁ku	-3296
▁mr	-3297
▁ul	-3298
acks	-3299
fund	-3300
llig	-3301
▁197	-3302
▁chr	-3303
▁exc	-3304
▁fru	-3305
▁ign	-3306
▁mao	-3307
▁mer	-3308
▁shi	-3309
▁suc	-3310
▁vol	-3311
ivity	-3312
thern	-3313
▁apec	-3314
▁bill	-3315
▁card	-3316
▁coal	-3317
▁dead	-3318
▁diss	-3319
▁drug	-3320
▁fier	-3321
▁poll	-3322
▁purs	-3323
▁sens	-3324
▁tell	-3325
▁type	-3326
▁vari	-3327
▁vast	-3328
ceeded	-3329
funded	-3330
ivered	-3331
unicip	-3332
▁amend	-3333
▁bases	-3334
▁cults	-3335
▁famil	-3336
▁goals	-3337
▁goods	-3338
▁greet	-3339
▁happy	-3340
▁hence	-3341
▁journ	-3342
▁mount	-3343
▁sched	-3344
▁seven	-3345
▁speak	-3346
▁topic	-3347
ocation	-3348
through	-3349
▁conven	-3350
▁degree	-3351
▁fujian	-3352
▁imposs	-3353
▁linked	-3354
▁millen	-3355
▁powers	-3356
▁remark	-3357
▁resist	-3358
▁satell	-3359
▁source	-3360
▁strike	-3361
▁america	-3362
▁ancient	-3363
▁average	-3364
▁balance	-3365
▁comment	-3366
▁conserv	-3367
▁coordin	-3368
▁engaged	-3369
▁failure	-3370
▁highest	-3371
▁judging	-3372
▁municip	-3373
▁nothing	-3374
▁revised	-3375
▁supreme	-3376
▁tibetan	-3377
▁analysis	-3378
▁civilian	-3379
▁communic	-3380
▁ensuring	-3381
▁intellig	-3382
▁powerful	-3383
▁pursuing	-3384
▁regarded	-3385
▁resolved	-3386
▁respects	-3387
▁response	-3388
▁revealed	-3389
▁smoothly	-3390
▁strongly	-3391
▁suffered	-3392
▁supports	-3393
▁welcomed	-3394
▁commander	-3395
▁committed	-3396
▁condition	-3397
▁delivered	-3398
▁discussed	-3399
▁intention	-3400
▁permanent	-3401
▁promotion	-3402
▁atmosphere	-3403
▁conclusion	-3404
▁deployment	-3405
▁determined	-3406
▁ecological	-3407
▁formulated	-3408
▁grassroots	-3409
▁parliament	-3410
▁profession	-3411
▁provisions	-3412
▁television	-3413
▁consumption	-3414
▁disarmament	-3415
▁experiences	-3416
▁parliaments	-3417
▁breakthrough	-3418
▁nevertheless	-3419
▁stipulations	-3420
▁consideration	-3421
▁consultations	-3422
▁participating	-3423
▁participation	-3424
▁reconnaissance	-3425
-8	-3426
az	-3427
uo	-3428
ank	-3429
aps	-3430
ead	-3431
equ	-3432
ift	-3433
mes	-3434
▁14	-3435
▁25	-3436
aded	-3437
cive	-3438
cont	-3439
down	-3440
ette	-3441
hold	-3442
ixed	-3443
ware	-3444
wise	-3445
▁esc	-3446
▁mag	-3447
▁oil	-3448
▁rej	-3449
▁typ	-3450
▁zed	-3451
arent	-3452
asing	-3453
aying	-3454
ested	-3455
iment	-3456
▁arab	-3457
▁dong	-3458
▁free	-3459
▁kaoh	-3460
▁kill	-3461
▁near	-3462
▁path	-3463
▁phil	-3464
▁site	-3465
▁sole	-3466
▁song	-3467
making	-3468
orious	-3469
▁adapt	-3470
▁apart	-3471
▁arats	-3472
▁avoid	-3473
▁devot	-3474
▁doubt	-3475
▁exact	-3476
▁grasp	-3477
▁honor	-3478
▁huang	-3479
▁newsp	-3480
▁spoke	-3481
▁vigil	-3482
▁withd	-3483
ression	-3484
▁africa	-3485
▁annual	-3486
▁assign	-3487
▁belong	-3488
▁choice	-3489
▁crimes	-3490
▁formal	-3491
▁moving	-3492
▁orient	-3493
▁paying	-3494
▁punish	-3495
▁turned	-3496
▁urgent	-3497
▁values	-3498
▁worked	-3499
▁zedong	-3500
▁airport	-3501
▁annette	-3502
▁bangzao	-3503
▁channel	-3504
▁complex	-3505
▁element	-3506
▁exports	-3507
▁finance	-3508
▁focused	-3509
▁growing	-3510
▁illegal	-3511
▁instead	-3512
▁journal	-3513
▁medical	-3514
▁neither	-3515
▁pacific	-3516
▁planned	-3517
▁plenary	-3518
▁talking	-3519
▁written	-3520
▁children	-3521
▁investig	-3522
▁networks	-3523
▁numerous	-3524
▁occurred	-3525
▁ordinary	-3526
▁priority	-3527
▁concerted	-3528
▁correctly	-3529
▁diplomacy	-3530
▁displayed	-3531
▁earnestly	-3532
▁essential	-3533
▁excellent	-3534
▁exchanged	-3535
▁kaohsiung	-3536
▁launching	-3537
▁proposals	-3538
▁provinces	-3539
▁smuggling	-3540
▁autonomous	-3541
▁eventually	-3542
▁impossible	-3543
▁association	-3544
▁generations	-3545
▁innovations	-3546
▁institution	-3547
▁suggestions	-3548
▁consistently	-3549
▁contemporary	-3550
▁intelligence	-3551
▁contradictions	-3552
▁conscientiously	-3553
.7	-3554
af	-3555
gy	-3556
li	-3557
mn	-3558
tt	-3559
aut	-3560
cot	-3561
cue	-3562
dom	-3563
ees	-3564
gos	-3565
han	-3566
off	-3567
urs	-3568
▁26	-3569
▁ye	-3570
ador	-3571
ains	-3572
avor	-3573
cast	-3574
held	-3575
imul	-3576
long	-3577
nium	-3578
raph	-3579
resp	-3580
stan	-3581
zhen	-3582
▁ask	-3583
▁aud	-3584
▁enl	-3585
▁men	-3586
▁obl	-3587
▁pan	-3588
▁rat	-3589
▁rum	-3590
▁sud	-3591
▁ten	-3592
▁unc	-3593
▁wit	-3594
ancip	-3595
going	-3596
itled	-3597
otian	-3598
▁1995	-3599
▁body	-3600
▁crew	-3601
▁date	-3602
▁emer	-3603
▁gone	-3604
▁ment	-3605
▁mess	-3606
▁send	-3607
▁soft	-3608
▁syri	-3609
▁upgr	-3610
▁wide	-3611
ailand	-3612
coming	-3613
ducive	-3614
emical	-3615
pected	-3616
▁appra	-3617
▁carri	-3618
▁chong	-3619
▁citiz	-3620
▁drawn	-3621
▁faced	-3622
▁forth	-3623
▁frame	-3624
▁hands	-3625
▁ident	-3626
▁incom	-3627
▁known	-3628
▁lower	-3629
▁macro	-3630
▁might	-3631
▁monit	-3632
▁pilot	-3633
▁seize	-3634
▁sober	-3635
▁stead	-3636
▁tests	-3637
▁unpre	-3638
▁until	-3639
▁watch	-3640
▁women	-3641
▁zhong	-3642
mitting	-3643
▁ambass	-3644
▁assemb	-3645
▁declar	-3646
▁exists	-3647
▁fairly	-3648
▁figure	-3649
▁france	-3650
▁height	-3651
▁losses	-3652
▁multip	-3653
▁placed	-3654
▁procur	-3655
▁raised	-3656
▁reserv	-3657
▁ruling	-3658
▁senate	-3659
▁splitt	-3660
▁square	-3661
▁stands	-3662
▁steady	-3663
▁unable	-3664
atically	-3665
▁briefed	-3666
▁emancip	-3667
▁evening	-3668
▁figures	-3669
▁initial	-3670
▁landing	-3671
▁marxist	-3672
▁possess	-3673
▁produce	-3674
▁raising	-3675
▁revenue	-3676
▁sources	-3677
▁turning	-3678
▁warning	-3679
▁accompan	-3680
▁activity	-3681
▁approval	-3682
▁frequent	-3683
▁jianxing	-3684
▁movement	-3685
▁required	-3686
▁resident	-3687
▁substant	-3688
▁thailand	-3689
▁treasury	-3690
▁conducive	-3691
▁decisions	-3692
▁eliminate	-3693
▁executive	-3694
▁extensive	-3695
▁institute	-3696
▁neighbors	-3697
▁operating	-3698
▁sanctions	-3699
▁sustained	-3700
▁treatment	-3701
▁consistent	-3702
▁continuing	-3703
▁employment	-3704
▁everything	-3705
▁hegemonism	-3706
▁millennium	-3707
▁personally	-3708
▁respective	-3709
▁settlement	-3710
▁thoroughly	-3711
▁concentrate	-3712
▁consolidate	-3713
▁enforcement	-3714
▁experienced	-3715
▁independent	-3716
▁integration	-3717
▁operational	-3718
▁orientation	-3719
▁significant	-3720
▁coordination	-3721
▁respectively	-3722
▁undertakings	-3723
▁manufacturing	-3724
▁nationalities	-3725
▁communications	-3726
▁transformation	-3727
ei	-3728
mp	-3729
sy	-3730
ald	-3731
dep	-3732
let	-3733
oph	-3734
pow	-3735
reg	-3736
rem	-3737
rog	-3738
ror	-3739
ull	-3740
▁1,	-3741
▁28	-3742
▁80	-3743
angu	-3744
hong	-3745
huan	-3746
inan	-3747
know	-3748
lebr	-3749
look	-3750
orts	-3751
pled	-3752
rong	-3753
uven	-3754
yang	-3755
▁196	-3756
▁awa	-3757
▁bad	-3758
▁che	-3759
▁gri	-3760
▁hot	-3761
▁nan	-3762
▁qiy	-3763
▁red	-3764
▁ver	-3765
▁yan	-3766
ading	-3767
arted	-3768
based	-3769
bassy	-3770
cious	-3771
depth	-3772
ilize	-3773
iques	-3774
irmed	-3775
ister	-3776
party	-3777
pring	-3778
riage	-3779
▁1992	-3780
▁chec	-3781
▁crac	-3782
▁edit	-3783
▁gath	-3784
▁hosp	-3785
▁laos	-3786
▁rein	-3787
▁rely	-3788
▁summ	-3789
▁surv	-3790
▁tack	-3791
▁tend	-3792
▁term	-3793
▁zeng	-3794
▁zone	-3795
econom	-3796
ichuan	-3797
iction	-3798
illery	-3799
▁autom	-3800
▁calls	-3801
▁dalai	-3802
▁explo	-3803
▁learn	-3804
▁makes	-3805
▁optim	-3806
▁posts	-3807
▁prior	-3808
▁sacri	-3809
istence	-3810
itarian	-3811
version	-3812
▁acknow	-3813
▁aspect	-3814
▁assets	-3815
▁celebr	-3816
▁charge	-3817
▁coming	-3818
▁compar	-3819
▁criter	-3820
▁detail	-3821
▁duties	-3822
▁enjoys	-3823
▁expert	-3824
▁hainan	-3825
▁indian	-3826
▁indign	-3827
▁mainst	-3828
▁marked	-3829
▁openly	-3830
▁record	-3831
▁severe	-3832
▁single	-3833
▁stimul	-3834
▁supply	-3835
▁surely	-3836
▁survey	-3837
allistic	-3838
cedented	-3839
▁claimed	-3840
▁deliber	-3841
▁drawing	-3842
▁elected	-3843
▁embassy	-3844
▁joining	-3845
▁lessons	-3846
▁practic	-3847
▁putting	-3848
▁regular	-3849
▁rejuven	-3850
▁signing	-3851
▁solving	-3852
▁targets	-3853
▁totally	-3854
▁unified	-3855
▁variety	-3856
▁victory	-3857
▁witness	-3858
ferential	-3859
▁accepted	-3860
▁approach	-3861
▁arrested	-3862
▁bringing	-3863
▁commerce	-3864
▁contents	-3865
▁contract	-3866
▁december	-3867
▁engaging	-3868
▁entering	-3869
▁entitled	-3870
▁everyone	-3871
▁expanded	-3872
▁extended	-3873
▁goodwill	-3874
▁minority	-3875
▁original	-3876
▁readjust	-3877
▁speeding	-3878
▁starting	-3879
▁superior	-3880
▁unemploy	-3881
▁artillery	-3882
▁encourage	-3883
▁followers	-3884
▁governing	-3885
▁greetings	-3886
▁intercept	-3887
▁involving	-3888
▁municipal	-3889
▁obviously	-3890
▁phenomena	-3891
▁presented	-3892
▁providing	-3893
▁reflected	-3894
▁stationed	-3895
▁worldwide	-3896
▁continuous	-3897
▁convention	-3898
▁excellency	-3899
▁expression	-3900
▁mechanisms	-3901
▁republican	-3902
▁submarines	-3903
▁declaration	-3904
▁politicians	-3905
▁participants	-3906
▁preferential	-3907
▁satisfaction	-3908
▁revolutionary	-3909
▁unprecedented	-3910
ek	-3911
ha	-3912
ii	-3913
ps	-3914
▁0	-3915
add	-3916
aks	-3917
alu	-3918
aug	-3919
bao	-3920
ieh	-3921
nan	-3922
oud	-3923
ovo	-3924
raw	-3925
rew	-3926
ulg	-3927
xic	-3928
▁31	-3929
▁ko	-3930
▁sk	-3931
▁xu	-3932
atul	-3933
bing	-3934
born	-3935
dong	-3936
east	-3937
emen	-3938
evit	-3939
face	-3940
here	-3941
iant	-3942
ites	-3943
lled	-3944
orge	-3945
orly	-3946
raid	-3947
rine	-3948
russ	-3949
shan	-3950
▁	-3951
e	-3952
t	-3953
n	-3954
i	-3955
a	-3956
o	-3957
s	-3958
r	-3959
h	-3960
l	-3961
d	-3962
c	-3963
u	-3964
p	-3965
m	-3966
g	-3967
f	-3968
y	-3969
w	-3970
v	-3971
b	-3972
.	-3973
,	-3974
k	-3975
"	-3976
-	-3977
j	-3978
x	-3979
'	-3980
z	-3981
q	-3982
0	-3983
1	-3984
:	-3985
9	-3986
2	-3987
5	-3988
3	-3989
4	-3990
8	-3991
6	-3992
7	-3993
)	-3994
(	-3995
