{
  "version": "1.0",
  "truncation": null,
  "padding": null,
  "added_tokens": [
    {
      "id": 0,
      "content": "[UNK]",
      "single_word": false,
      "lstrip": false,
      "rstrip": false,
      "normalized": false,
      "special": true
    },
    {
      "id": 1,
      "content": "[PAD]",
      "single_word": false,
      "lstrip": false,
      "rstrip": false,
      "normalized": false,
      "special": true
    },
    {
      "id": 2,
      "content": "[CLS]",
      "single_word": false,
      "lstrip": false,
      "rstrip": false,
      "normalized": false,
      "special": true
    },
    {
      "id": 3,
      "content": "[SEP]",
      "single_word": false,
      "lstrip": false,
      "rstrip": false,
      "normalized": false,
      "special": true
    },
    {
      "id": 4,
      "content": "[MASK]",
      "single_word": false,
      "lstrip": false,
      "rstrip": false,
      "normalized": false,
      "special": true
    }
  ],
  "normalizer": null,
  "pre_tokenizer": {
    "type": "BertPreTokenizer"
  },
  "post_processor": null,
  "decoder": null,
  "model": {
    "type": "BPE",
    "dropout": null,
    "unk_token": "[UNK]",
    "continuing_subword_prefix": null,
    "end_of_word_suffix": null,
    "fuse_unk": false,
    "byte_fallback": false,
    "ignore_merges": false,
    "vocab": {
      "[UNK]": 0,
      "[PAD]": 1,
      "[CLS]": 2,
      "[SEP]": 3,
      "[MASK]": 4,
      "-": 5,
      ".": 6,
      "0": 7,
      "1": 8,
      "3": 9,
      "4": 10,
      "7": 11,
      "8": 12,
      "9": 13,
      "A": 14,
      "B": 15,
      "C": 16,
      "D": 17,
      "G": 18,
      "H": 19,
      "J": 20,
      "L": 21,
      "M": 22,
      "O": 23,
      "P": 24,
      "R": 25,
      "S": 26,
      "T": 27,
      "U": 28,
      "a": 29,
      "c": 30,
      "d": 31,
      "e": 32,
      "f": 33,
      "g": 34,
      "h": 35,
      "i": 36,
      "k": 37,
      "l": 38,
      "m": 39,
      "n": 40,
      "o": 41,
      "p": 42,
      "r": 43,
      "s": 44,
      "t": 45,
      "u": 46,
      "v": 47,
      "w": 48,
      "y": 49,
      "z": 50,
      "±": 51,
      "·": 52,
      "—": 53,
      "‘": 54,
      "’": 55,
      "“": 56,
      "”": 57,
      "…": 58,
      "※": 59,
      "○": 60,
      "、": 61,
      "。": 62,
      "〇": 63,
      "《": 64,
      "》": 65,
      "】": 66,
      "イ": 67,
      "ツ": 68,
      "ハ": 69,
      "㈣": 70,
      "㈧": 71,
      "㈨": 72,
      "一": 73,
      "丁": 74,
      "七": 75,
      "万": 76,
      "丈": 77,
      "三": 78,
      "上": 79,
      "下": 80,
      "丌": 81,
      "不": 82,
      "与": 83,
      "丐": 84,
      "丑": 85,
      "专": 86,
      "且": 87,
      "世": 88,
      "丘": 89,
      "丙": 90,
      "业": 91,
      "丛": 92,
      "东": 93,
      "丝": 94,
      "丞": 95,
      "丟": 96,
      "両": 97,
      "丢": 98,
      "两": 99,
      "严": 100,
      "丧": 101,
      "个": 102,
      "丫": 103,
      "中": 104,
      "丰": 105,
      "串": 106,
      "临": 107,
      "丸": 108,
      "丹": 109,
      "为": 110,
      "主": 111,
      "丽": 112,
      "举": 113,
      "乃": 114,
      "久": 115,
      "么": 116,
      "义": 117,
      "之": 118,
      "乌": 119,
      "乍": 120,
      "乎": 121,
      "乏": 122,
      "乐": 123,
      "乒": 124,
      "乓": 125,
      "乔": 126,
      "乖": 127,
      "乘": 128,
      "乙": 129,
      "乜": 130,
      "九": 131,
      "乞": 132,
      "也": 133,
      "习": 134,
      "乡": 135,
      "书": 136,
      "乩": 137,
      "买": 138,
      "乱": 139,
      "乳": 140,
      "乾": 141,
      "了": 142,
      "亇": 143,
      "予": 144,
      "争": 145,
      "事": 146,
      "二": 147,
      "亍": 148,
      "于": 149,
      "亏": 150,
      "云": 151,
      "互": 152,
      "五": 153,
      "井": 154,
      "亘": 155,
      "亚": 156,
      "些": 157,
      "亟": 158,
      "亡": 159,
      "亢": 160,
      "交": 161,
      "亥": 162,
      "亦": 163,
      "产": 164,
      "亨": 165,
      "亩": 166,
      "享": 167,
      "京": 168,
      "亭": 169,
      "亮": 170,
      "亲": 171,
      "亳": 172,
      "亵": 173,
      "人": 174,
      "亿": 175,
      "什": 176,
      "仁": 177,
      "仃": 178,
      "仄": 179,
      "仅": 180,
      "仆": 181,
      "仇": 182,
      "今": 183,
      "介": 184,
      "仍": 185,
      "从": 186,
      "仑": 187,
      "仓": 188,
      "仔": 189,
      "仕": 190,
      "他": 191,
      "仗": 192,
      "付": 193,
      "仙": 194,
      "仝": 195,
      "仞": 196,
      "仟": 197,
      "代": 198,
      "令": 199,
      "以": 200,
      "仪": 201,
      "们": 202,
      "仰": 203,
      "仲": 204,
      "仴": 205,
      "件": 206,
      "价": 207,
      "任": 208,
      "份": 209,
      "仿": 210,
      "企": 211,
      "伉": 212,
      "伊": 213,
      "伍": 214,
      "伎": 215,
      "伏": 216,
      "伐": 217,
      "休": 218,
      "伕": 219,
      "众": 220,
      "优": 221,
      "伙": 222,
      "会": 223,
      "伛": 224,
      "伞": 225,
      "伟": 226,
      "传": 227,
      "伤": 228,
      "伥": 229,
      "伦": 230,
      "伧": 231,
      "伪": 232,
      "伫": 233,
      "伯": 234,
      "估": 235,
      "伲": 236,
      "伴": 237,
      "伶": 238,
      "伸": 239,
      "伺": 240,
      "似": 241,
      "伽": 242,
      "但": 243,
      "位": 244,
      "低": 245,
      "住": 246,
      "佐": 247,
      "佑": 248,
      "体": 249,
      "何": 250,
      "佗": 251,
      "佘": 252,
      "余": 253,
      "佚": 254,
      "佛": 255,
      "作": 256,
      "佝": 257,
      "佞": 258,
      "你": 259,
      "佢": 260,
      "佣": 261,
      "佩": 262,
      "佬": 263,
      "佯": 264,
      "佳": 265,
      "佶": 266,
      "佻": 267,
      "佼": 268,
      "使": 269,
      "侃": 270,
      "侄": 271,
      "侈": 272,
      "侉": 273,
      "例": 274,
      "侍": 275,
      "侏": 276,
      "供": 277,
      "依": 278,
      "侠": 279,
      "侣": 280,
      "侥": 281,
      "侦": 282,
      "侧": 283,
      "侨": 284,
      "侩": 285,
      "侪": 286,
      "侬": 287,
      "侮": 288,
      "侯": 289,
      "侵": 290,
      "便": 291,
      "促": 292,
      "俄": 293,
      "俊": 294,
      "俎": 295,
      "俏": 296,
      "俐": 297,
      "俗": 298,
      "俘": 299,
      "俚": 300,
      "保": 301,
      "俞": 302,
      "俟": 303,
      "俠": 304,
      "信": 305,
      "俦": 306,
      "俨": 307,
      "俩": 308,
      "俪": 309,
      "俬": 310,
      "俭": 311,
      "修": 312,
      "俯": 313,
      "俱": 314,
      "俸": 315,
      "俺": 316,
      "俾": 317,
      "倍": 318,
      "倏": 319,
      "倒": 320,
      "倔": 321,
      "倘": 322,
      "候": 323,
      "倚": 324,
      "倜": 325,
      "借": 326,
      "倡": 327,
      "倦": 328,
      "倨": 329,
      "倩": 330,
      "倪": 331,
      "债": 332,
      "值": 333,
      "倾": 334,
      "偃": 335,
      "假": 336,
      "偈": 337,
      "偌": 338,
      "偎": 339,
      "偏": 340,
      "偕": 341,
      "做": 342,
      "停": 343,
      "健": 344,
      "偶": 345,
      "偷": 346,
      "偻": 347,
      "偿": 348,
      "傀": 349,
      "傅": 350,
      "傈": 351,
      "傍": 352,
      "傜": 353,
      "傥": 354,
      "储": 355,
      "催": 356,
      "傲": 357,
      "傳": 358,
      "傻": 359,
      "像": 360,
      "僚": 361,
      "僧": 362,
      "僭": 363,
      "僮": 364,
      "僳": 365,
      "僵": 366,
      "僻": 367,
      "儇": 368,
      "儒": 369,
      "儡": 370,
      "儿": 371,
      "兀": 372,
      "允": 373,
      "元": 374,
      "兄": 375,
      "充": 376,
      "兆": 377,
      "先": 378,
      "光": 379,
      "克": 380,
      "兌": 381,
      "免": 382,
      "兑": 383,
      "兔": 384,
      "党": 385,
      "兜": 386,
      "兢": 387,
      "入": 388,
      "內": 389,
      "全": 390,
      "兩": 391,
      "八": 392,
      "公": 393,
      "六": 394,
      "兮": 395,
      "兰": 396,
      "共": 397,
      "关": 398,
      "兴": 399,
      "兵": 400,
      "其": 401,
      "具": 402,
      "典": 403,
      "兹": 404,
      "养": 405,
      "兼": 406,
      "兽": 407,
      "冀": 408,
      "冃": 409,
      "内": 410,
      "冇": 411,
      "冈": 412,
      "冉": 413,
      "册": 414,
      "再": 415,
      "冑": 416,
      "冒": 417,
      "冕": 418,
      "冗": 419,
      "写": 420,
      "军": 421,
      "农": 422,
      "冠": 423,
      "冤": 424,
      "冥": 425,
      "冬": 426,
      "冯": 427,
      "冰": 428,
      "冲": 429,
      "决": 430,
      "况": 431,
      "冶": 432,
      "冷": 433,
      "冻": 434,
      "冼": 435,
      "冽": 436,
      "净": 437,
      "凄": 438,
      "准": 439,
      "凉": 440,
      "凋": 441,
      "凌": 442,
      "凍": 443,
      "减": 444,
      "凑": 445,
      "凛": 446,
      "凝": 447,
      "几": 448,
      "凡": 449,
      "凤": 450,
      "凫": 451,
      "凭": 452,
      "凯": 453,
      "凰": 454,
      "凳": 455,
      "凶": 456,
      "凸": 457,
      "凹": 458,
      "出": 459,
      "击": 460,
      "函": 461,
      "凿": 462,
      "刀": 463,
      "刁": 464,
      "刃": 465,
      "分": 466,
      "切": 467,
      "刊": 468,
      "刎": 469,
      "刑": 470,
      "划": 471,
      "刖": 472,
      "列": 473,
      "刘": 474,
      "则": 475,
      "刚": 476,
      "创": 477,
      "初": 478,
      "删": 479,
      "判": 480,
      "利": 481,
      "别": 482,
      "刮": 483,
      "到": 484,
      "制": 485,
      "刷": 486,
      "券": 487,
      "刹": 488,
      "刺": 489,
      "刻": 490,
      "剁": 491,
      "剂": 492,
      "剃": 493,
      "削": 494,
      "剌": 495,
      "前": 496,
      "剐": 497,
      "剑": 498,
      "剔": 499,
      "剖": 500,
      "剜": 501,
      "剥": 502,
      "剧": 503,
      "剩": 504,
      "剪": 505,
      "副": 506,
      "割": 507,
      "剽": 508,
      "剿": 509,
      "劈": 510,
      "力": 511,
      "劝": 512,
      "办": 513,
      "功": 514,
      "加": 515,
      "务": 516,
      "劣": 517,
      "动": 518,
      "助": 519,
      "努": 520,
      "劫": 521,
      "劭": 522,
      "励": 523,
      "劲": 524,
      "劳": 525,
      "势": 526,
      "勃": 527,
      "勇": 528,
      "勉": 529,
      "勋": 530,
      "勒": 531,
      "勖": 532,
      "勘": 533,
      "勝": 534,
      "募": 535,
      "勤": 536,
      "勺": 537,
      "勾": 538,
      "勿": 539,
      "匀": 540,
      "包": 541,
      "匆": 542,
      "匈": 543,
      "匍": 544,
      "匐": 545,
      "匕": 546,
      "化": 547,
      "北": 548,
      "匙": 549,
      "匝": 550,
      "匠": 551,
      "匡": 552,
      "匣": 553,
      "匪": 554,
      "匮": 555,
      "匹": 556,
      "区": 557,
      "医": 558,
      "匾": 559,
      "匿": 560,
      "十": 561,
      "千": 562,
      "升": 563,
      "午": 564,
      "卉": 565,
      "半": 566,
      "华": 567,
      "协": 568,
      "卑": 569,
      "卒": 570,
      "卓": 571,
      "单": 572,
      "卖": 573,
      "南": 574,
      "博": 575,
      "卜": 576,
      "卞": 577,
      "占": 578,
      "卡": 579,
      "卢": 580,
      "卣": 581,
      "卤": 582,
      "卦": 583,
      "卧": 584,
      "卩": 585,
      "卫": 586,
      "卯": 587,
      "印": 588,
      "危": 589,
      "即": 590,
      "却": 591,
      "卵": 592,
      "卷": 593,
      "卸": 594,
      "卿": 595,
      "厂": 596,
      "厄": 597,
      "厅": 598,
      "历": 599,
      "厉": 600,
      "压": 601,
      "厌": 602,
      "厕": 603,
      "厘": 604,
      "厚": 605,
      "厝": 606,
      "原": 607,
      "厢": 608,
      "厥": 609,
      "厦": 610,
      "厨": 611,
      "厩": 612,
      "厮": 613,
      "厲": 614,
      "去": 615,
      "县": 616,
      "参": 617,
      "又": 618,
      "叉": 619,
      "及": 620,
      "友": 621,
      "双": 622,
      "反": 623,
      "发": 624,
      "叔": 625,
      "取": 626,
      "受": 627,
      "变": 628,
      "叙": 629,
      "叛": 630,
      "叟": 631,
      "叠": 632,
      "口": 633,
      "古": 634,
      "句": 635,
      "另": 636,
      "叨": 637,
      "叩": 638,
      "只": 639,
      "叫": 640,
      "召": 641,
      "叭": 642,
      "叮": 643,
      "可": 644,
      "台": 645,
      "叱": 646,
      "史": 647,
      "右": 648,
      "叵": 649,
      "叶": 650,
      "号": 651,
      "司": 652,
      "叹": 653,
      "叽": 654,
      "吁": 655,
      "吃": 656,
      "各": 657,
      "吆": 658,
      "合": 659,
      "吉": 660,
      "吊": 661,
      "同": 662,
      "名": 663,
      "后": 664,
      "吏": 665,
      "吐": 666,
      "向": 667,
      "吓": 668,
      "吕": 669,
      "吗": 670,
      "君": 671,
      "吝": 672,
      "吞": 673,
      "吟": 674,
      "吠": 675,
      "否": 676,
      "吧": 677,
      "吨": 678,
      "吩": 679,
      "含": 680,
      "听": 681,
      "吭": 682,
      "吮": 683,
      "启": 684,
      "吱": 685,
      "吴": 686,
      "吵": 687,
      "吸": 688,
      "吹": 689,
      "吻": 690,
      "吼": 691,
      "吾": 692,
      "呀": 693,
      "呂": 694,
      "呃": 695,
      "呆": 696,
      "呈": 697,
      "告": 698,
      "呐": 699,
      "呒": 700,
      "呓": 701,
      "呔": 702,
      "呕": 703,
      "呖": 704,
      "员": 705,
      "呛": 706,
      "呜": 707,
      "呢": 708,
      "呦": 709,
      "周": 710,
      "呯": 711,
      "呰": 712,
      "呱": 713,
      "味": 714,
      "呵": 715,
      "呶": 716,
      "呷": 717,
      "呸": 718,
      "呻": 719,
      "呼": 720,
      "命": 721,
      "咀": 722,
      "咂": 723,
      "咄": 724,
      "咆": 725,
      "咋": 726,
      "和": 727,
      "咎": 728,
      "咐": 729,
      "咒": 730,
      "咕": 731,
      "咙": 732,
      "咚": 733,
      "咛": 734,
      "咤": 735,
      "咦": 736,
      "咧": 737,
      "咨": 738,
      "咩": 739,
      "咪": 740,
      "咫": 741,
      "咬": 742,
      "咭": 743,
      "咯": 744,
      "咱": 745,
      "咳": 746,
      "咸": 747,
      "咽": 748,
      "咿": 749,
      "哀": 750,
      "品": 751,
      "哂": 752,
      "哄": 753,
      "哇": 754,
      "哈": 755,
      "哉": 756,
      "响": 757,
      "哎": 758,
      "哑": 759,
      "哒": 760,
      "哓": 761,
      "哗": 762,
      "哙": 763,
      "哝": 764,
      "哟": 765,
      "哥": 766,
      "哦": 767,
      "哧": 768,
      "哨": 769,
      "哩": 770,
      "哪": 771,
      "哭": 772,
      "哮": 773,
      "哲": 774,
      "哺": 775,
      "哼": 776,
      "哽": 777,
      "哿": 778,
      "唆": 779,
      "唇": 780,
      "唉": 781,
      "唏": 782,
      "唐": 783,
      "唔": 784,
      "唠": 785,
      "唢": 786,
      "唣": 787,
      "唤": 788,
      "唧": 789,
      "唬": 790,
      "售": 791,
      "唯": 792,
      "唰": 793,
      "唱": 794,
      "唳": 795,
      "唵": 796,
      "唷": 797,
      "唾": 798,
      "唿": 799,
      "啃": 800,
      "啄": 801,
      "商": 802,
      "啊": 803,
      "啐": 804,
      "啕": 805,
      "啖": 806,
      "啜": 807,
      "啤": 808,
      "啥": 809,
      "啦": 810,
      "啧": 811,
      "啪": 812,
      "啬": 813,
      "啮": 814,
      "啰": 815,
      "啷": 816,
      "啸": 817,
      "啻": 818,
      "啼": 819,
      "啾": 820,
      "喀": 821,
      "喁": 822,
      "喂": 823,
      "喃": 824,
      "善": 825,
      "喇": 826,
      "喉": 827,
      "喊": 828,
      "喋": 829,
      "喏": 830,
      "喑": 831,
      "喔": 832,
      "喘": 833,
      "喙": 834,
      "喚": 835,
      "喜": 836,
      "喝": 837,
      "喟": 838,
      "喧": 839,
      "喳": 840,
      "喷": 841,
      "喻": 842,
      "喽": 843,
      "嗄": 844,
      "嗅": 845,
      "嗌": 846,
      "嗎": 847,
      "嗒": 848,
      "嗓": 849,
      "嗔": 850,
      "嗖": 851,
      "嗜": 852,
      "嗟": 853,
      "嗡": 854,
      "嗣": 855,
      "嗤": 856,
      "嗥": 857,
      "嗦": 858,
      "嗫": 859,
      "嗬": 860,
      "嗯": 861,
      "嗲": 862,
      "嗳": 863,
      "嗽": 864,
      "嘀": 865,
      "嘈": 866,
      "嘉": 867,
      "嘎": 868,
      "嘘": 869,
      "嘛": 870,
      "嘟": 871,
      "嘡": 872,
      "嘤": 873,
      "嘭": 874,
      "嘱": 875,
      "嘲": 876,
      "嘴": 877,
      "嘶": 878,
      "嘹": 879,
      "嘻": 880,
      "嘿": 881,
      "噍": 882,
      "噎": 883,
      "噗": 884,
      "噜": 885,
      "噢": 886,
      "噤": 887,
      "器": 888,
      "噩": 889,
      "噪": 890,
      "噫": 891,
      "噬": 892,
      "噼": 893,
      "嚅": 894,
      "嚎": 895,
      "嚏": 896,
      "嚓": 897,
      "嚕": 898,
      "嚣": 899,
      "嚭": 900,
      "嚷": 901,
      "嚼": 902,
      "囊": 903,
      "囚": 904,
      "四": 905,
      "回": 906,
      "囟": 907,
      "因": 908,
      "团": 909,
      "囫": 910,
      "园": 911,
      "囯": 912,
      "困": 913,
      "囱": 914,
      "囲": 915,
      "围": 916,
      "囵": 917,
      "固": 918,
      "国": 919,
      "图": 920,
      "囿": 921,
      "圃": 922,
      "圆": 923,
      "圈": 924,
      "國": 925,
      "圓": 926,
      "圜": 927,
      "土": 928,
      "圣": 929,
      "在": 930,
      "圭": 931,
      "地": 932,
      "圹": 933,
      "场": 934,
      "址": 935,
      "坂": 936,
      "均": 937,
      "坊": 938,
      "坍": 939,
      "坎": 940,
      "坏": 941,
      "坐": 942,
      "坑": 943,
      "块": 944,
      "坚": 945,
      "坛": 946,
      "坞": 947,
      "坟": 948,
      "坠": 949,
      "坡": 950,
      "坤": 951,
      "坦": 952,
      "坪": 953,
      "坳": 954,
      "坷": 955,
      "垂": 956,
      "垆": 957,
      "型": 958,
      "垒": 959,
      "垓": 960,
      "垛": 961,
      "垢": 962,
      "垣": 963,
      "垩": 964,
      "垫": 965,
      "垮": 966,
      "埃": 967,
      "埋": 968,
      "城": 969,
      "埒": 970,
      "域": 971,
      "埠": 972,
      "埤": 973,
      "培": 974,
      "基": 975,
      "堂": 976,
      "堆": 977,
      "堉": 978,
      "堕": 979,
      "堡": 980,
      "堤": 981,
      "堪": 982,
      "堰": 983,
      "堵": 984,
      "塌": 985,
      "塍": 986,
      "塑": 987,
      "塔": 988,
      "塘": 989,
      "塞": 990,
      "填": 991,
      "境": 992,
      "墅": 993,
      "墓": 994,
      "墙": 995,
      "增": 996,
      "墟": 997,
      "墨": 998,
      "墩": 999,
      "墮": 1000,
      "壁": 1001,
      "壅": 1002,
      "壑": 1003,
      "壕": 1004,
      "壤": 1005,
      "士": 1006,
      "壬": 1007,
      "壮": 1008,
      "壯": 1009,
      "声": 1010,
      "壳": 1011,
      "壶": 1012,
      "处": 1013,
      "备": 1014,
      "复": 1015,
      "夏": 1016,
      "夕": 1017,
      "外": 1018,
      "多": 1019,
      "夜": 1020,
      "够": 1021,
      "夤": 1022,
      "大": 1023,
      "天": 1024,
      "太": 1025,
      "夫": 1026,
      "夬": 1027,
      "夭": 1028,
      "央": 1029,
      "失": 1030,
      "头": 1031,
      "夷": 1032,
      "夸": 1033,
      "夹": 1034,
      "夺": 1035,
      "奁": 1036,
      "奂": 1037,
      "奄": 1038,
      "奇": 1039,
      "奈": 1040,
      "奉": 1041,
      "奋": 1042,
      "奏": 1043,
      "契": 1044,
      "奔": 1045,
      "奕": 1046,
      "奖": 1047,
      "套": 1048,
      "奘": 1049,
      "奚": 1050,
      "奠": 1051,
      "奢": 1052,
      "奥": 1053,
      "奧": 1054,
      "女": 1055,
      "奴": 1056,
      "奶": 1057,
      "奸": 1058,
      "她": 1059,
      "好": 1060,
      "妁": 1061,
      "如": 1062,
      "妃": 1063,
      "妄": 1064,
      "妆": 1065,
      "妇": 1066,
      "妈": 1067,
      "妍": 1068,
      "妒": 1069,
      "妓": 1070,
      "妖": 1071,
      "妙": 1072,
      "妞": 1073,
      "妥": 1074,
      "妨": 1075,
      "妩": 1076,
      "妪": 1077,
      "妫": 1078,
      "妮": 1079,
      "妯": 1080,
      "妹": 1081,
      "妻": 1082,
      "妾": 1083,
      "姆": 1084,
      "姉": 1085,
      "姊": 1086,
      "始": 1087,
      "姐": 1088,
      "姑": 1089,
      "姓": 1090,
      "委": 1091,
      "姗": 1092,
      "姘": 1093,
      "姚": 1094,
      "姜": 1095,
      "姝": 1096,
      "姥": 1097,
      "姨": 1098,
      "姬": 1099,
      "姹": 1100,
      "姻": 1101,
      "姿": 1102,
      "威": 1103,
      "娃": 1104,
      "娆": 1105,
      "娇": 1106,
      "娈": 1107,
      "娉": 1108,
      "娌": 1109,
      "娑": 1110,
      "娓": 1111,
      "娘": 1112,
      "娜": 1113,
      "娟": 1114,
      "娥": 1115,
      "娱": 1116,
      "娴": 1117,
      "娶": 1118,
      "娼": 1119,
      "婀": 1120,
      "婆": 1121,
      "婉": 1122,
      "婊": 1123,
      "婚": 1124,
      "婢": 1125,
      "婪": 1126,
      "婴": 1127,
      "婶": 1128,
      "婷": 1129,
      "婿": 1130,
      "媒": 1131,
      "媚": 1132,
      "媪": 1133,
      "媳": 1134,
      "嫁": 1135,
      "嫂": 1136,
      "嫉": 1137,
      "嫌": 1138,
      "嫔": 1139,
      "嫖": 1140,
      "嫡": 1141,
      "嫣": 1142,
      "嫦": 1143,
      "嫩": 1144,
      "嫫": 1145,
      "嬉": 1146,
      "嬗": 1147,
      "嬛": 1148,
      "嬴": 1149,
      "孀": 1150,
      "子": 1151,
      "孔": 1152,
      "孕": 1153,
      "字": 1154,
      "存": 1155,
      "孙": 1156,
      "孚": 1157,
      "孜": 1158,
      "孝": 1159,
      "孟": 1160,
      "季": 1161,
      "孤": 1162,
      "学": 1163,
      "孩": 1164,
      "孪": 1165,
      "孰": 1166,
      "孱": 1167,
      "孳": 1168,
      "孺": 1169,
      "孽": 1170,
      "宁": 1171,
      "它": 1172,
      "宅": 1173,
      "宇": 1174,
      "守": 1175,
      "安": 1176,
      "宋": 1177,
      "完": 1178,
      "宏": 1179,
      "宓": 1180,
      "宗": 1181,
      "官": 1182,
      "宙": 1183,
      "定": 1184,
      "宛": 1185,
      "宜": 1186,
      "宝": 1187,
      "实": 1188,
      "宠": 1189,
      "审": 1190,
      "客": 1191,
      "宣": 1192,
      "室": 1193,
      "宥": 1194,
      "宦": 1195,
      "宪": 1196,
      "宫": 1197,
      "宰": 1198,
      "害": 1199,
      "宴": 1200,
      "宵": 1201,
      "家": 1202,
      "宸": 1203,
      "容": 1204,
      "宽": 1205,
      "宾": 1206,
      "宿": 1207,
      "寂": 1208,
      "寄": 1209,
      "密": 1210,
      "寇": 1211,
      "富": 1212,
      "寐": 1213,
      "寒": 1214,
      "寓": 1215,
      "寝": 1216,
      "寞": 1217,
      "察": 1218,
      "寡": 1219,
      "寤": 1220,
      "寥": 1221,
      "寧": 1222,
      "寨": 1223,
      "寰": 1224,
      "寸": 1225,
      "对": 1226,
      "寺": 1227,
      "寻": 1228,
      "导": 1229,
      "寿": 1230,
      "封": 1231,
      "射": 1232,
      "将": 1233,
      "尉": 1234,
      "尊": 1235,
      "小": 1236,
      "少": 1237,
      "尔": 1238,
      "尖": 1239,
      "尘": 1240,
      "尚": 1241,
      "尝": 1242,
      "尤": 1243,
      "尧": 1244,
      "尬": 1245,
      "就": 1246,
      "尴": 1247,
      "尶": 1248,
      "尸": 1249,
      "尹": 1250,
      "尺": 1251,
      "尼": 1252,
      "尽": 1253,
      "尾": 1254,
      "尿": 1255,
      "局": 1256,
      "屁": 1257,
      "层": 1258,
      "居": 1259,
      "屈": 1260,
      "屉": 1261,
      "届": 1262,
      "屋": 1263,
      "屎": 1264,
      "屏": 1265,
      "屑": 1266,
      "展": 1267,
      "属": 1268,
      "屠": 1269,
      "屡": 1270,
      "屣": 1271,
      "履": 1272,
      "屯": 1273,
      "山": 1274,
      "屹": 1275,
      "屿": 1276,
      "岀": 1277,
      "岁": 1278,
      "岂": 1279,
      "岌": 1280,
      "岐": 1281,
      "岔": 1282,
      "岖": 1283,
      "岗": 1284,
      "岛": 1285,
      "岡": 1286,
      "岢": 1287,
      "岩": 1288,
      "岫": 1289,
      "岭": 1290,
      "岱": 1291,
      "岳": 1292,
      "岸": 1293,
      "峋": 1294,
      "峒": 1295,
      "峙": 1296,
      "峡": 1297,
      "峥": 1298,
      "峦": 1299,
      "峨": 1300,
      "峭": 1301,
      "峰": 1302,
      "峻": 1303,
      "崂": 1304,
      "崆": 1305,
      "崇": 1306,
      "崈": 1307,
      "崎": 1308,
      "崔": 1309,
      "崖": 1310,
      "崛": 1311,
      "崩": 1312,
      "崭": 1313,
      "崽": 1314,
      "嵇": 1315,
      "嵋": 1316,
      "嵌": 1317,
      "嵘": 1318,
      "嵩": 1319,
      "嶙": 1320,
      "巅": 1321,
      "巍": 1322,
      "川": 1323,
      "州": 1324,
      "巡": 1325,
      "巢": 1326,
      "工": 1327,
      "左": 1328,
      "巧": 1329,
      "巨": 1330,
      "巩": 1331,
      "巫": 1332,
      "差": 1333,
      "己": 1334,
      "已": 1335,
      "巳": 1336,
      "巴": 1337,
      "巷": 1338,
      "巽": 1339,
      "巾": 1340,
      "币": 1341,
      "市": 1342,
      "布": 1343,
      "帅": 1344,
      "帆": 1345,
      "师": 1346,
      "希": 1347,
      "帏": 1348,
      "帐": 1349,
      "帔": 1350,
      "帕": 1351,
      "帖": 1352,
      "帘": 1353,
      "帚": 1354,
      "帛": 1355,
      "帜": 1356,
      "帝": 1357,
      "带": 1358,
      "席": 1359,
      "帮": 1360,
      "帷": 1361,
      "常": 1362,
      "帽": 1363,
      "幄": 1364,
      "幅": 1365,
      "幔": 1366,
      "幕": 1367,
      "幞": 1368,
      "幡": 1369,
      "干": 1370,
      "平": 1371,
      "年": 1372,
      "并": 1373,
      "幸": 1374,
      "幺": 1375,
      "幻": 1376,
      "幼": 1377,
      "幽": 1378,
      "广": 1379,
      "庄": 1380,
      "庆": 1381,
      "庇": 1382,
      "床": 1383,
      "序": 1384,
      "庐": 1385,
      "庑": 1386,
      "库": 1387,
      "应": 1388,
      "底": 1389,
      "庖": 1390,
      "店": 1391,
      "庙": 1392,
      "庚": 1393,
      "府": 1394,
      "庞": 1395,
      "废": 1396,
      "度": 1397,
      "座": 1398,
      "庭": 1399,
      "庵": 1400,
      "庶": 1401,
      "康": 1402,
      "庸": 1403,
      "廉": 1404,
      "廊": 1405,
      "廖": 1406,
      "廝": 1407,
      "廢": 1408,
      "廨": 1409,
      "廪": 1410,
      "延": 1411,
      "廷": 1412,
      "建": 1413,
      "廿": 1414,
      "开": 1415,
      "弁": 1416,
      "异": 1417,
      "弃": 1418,
      "弄": 1419,
      "弈": 1420,
      "弊": 1421,
      "式": 1422,
      "弑": 1423,
      "弓": 1424,
      "弔": 1425,
      "引": 1426,
      "弗": 1427,
      "弘": 1428,
      "弛": 1429,
      "弟": 1430,
      "张": 1431,
      "弥": 1432,
      "弦": 1433,
      "弧": 1434,
      "弩": 1435,
      "弭": 1436,
      "弯": 1437,
      "弱": 1438,
      "強": 1439,
      "弹": 1440,
      "强": 1441,
      "彀": 1442,
      "归": 1443,
      "当": 1444,
      "录": 1445,
      "彖": 1446,
      "彝": 1447,
      "彡": 1448,
      "形": 1449,
      "彤": 1450,
      "彦": 1451,
      "彩": 1452,
      "彪": 1453,
      "彬": 1454,
      "彭": 1455,
      "彰": 1456,
      "影": 1457,
      "彳": 1458,
      "彷": 1459,
      "役": 1460,
      "彻": 1461,
      "彼": 1462,
      "往": 1463,
      "征": 1464,
      "径": 1465,
      "待": 1466,
      "徇": 1467,
      "很": 1468,
      "徊": 1469,
      "律": 1470,
      "徐": 1471,
      "徒": 1472,
      "得": 1473,
      "徘": 1474,
      "徙": 1475,
      "御": 1476,
      "徨": 1477,
      "循": 1478,
      "徭": 1479,
      "微": 1480,
      "徵": 1481,
      "德": 1482,
      "徽": 1483,
      "心": 1484,
      "必": 1485,
      "忆": 1486,
      "忌": 1487,
      "忍": 1488,
      "忏": 1489,
      "忐": 1490,
      "忑": 1491,
      "忒": 1492,
      "忖": 1493,
      "志": 1494,
      "忘": 1495,
      "忙": 1496,
      "忝": 1497,
      "忠": 1498,
      "忡": 1499,
      "忤": 1500,
      "忧": 1501,
      "忪": 1502,
      "快": 1503,
      "忭": 1504,
      "忱": 1505,
      "念": 1506,
      "忸": 1507,
      "忻": 1508,
      "忽": 1509,
      "忾": 1510,
      "忿": 1511,
      "怀": 1512,
      "态": 1513,
      "怂": 1514,
      "怃": 1515,
      "怄": 1516,
      "怅": 1517,
      "怆": 1518,
      "怎": 1519,
      "怏": 1520,
      "怒": 1521,
      "怔": 1522,
      "怕": 1523,
      "怖": 1524,
      "怙": 1525,
      "怜": 1526,
      "思": 1527,
      "怠": 1528,
      "怡": 1529,
      "急": 1530,
      "怦": 1531,
      "性": 1532,
      "怨": 1533,
      "怩": 1534,
      "怪": 1535,
      "怫": 1536,
      "怯": 1537,
      "怵": 1538,
      "总": 1539,
      "怼": 1540,
      "怿": 1541,
      "恁": 1542,
      "恂": 1543,
      "恃": 1544,
      "恋": 1545,
      "恍": 1546,
      "恐": 1547,
      "恒": 1548,
      "恕": 1549,
      "恙": 1550,
      "恚": 1551,
      "恢": 1552,
      "恣": 1553,
      "恤": 1554,
      "恨": 1555,
      "恩": 1556,
      "恪": 1557,
      "恫": 1558,
      "恬": 1559,
      "恭": 1560,
      "息": 1561,
      "恰": 1562,
      "恳": 1563,
      "恶": 1564,
      "恸": 1565,
      "恺": 1566,
      "恻": 1567,
      "恼": 1568,
      "恿": 1569,
      "悄": 1570,
      "悅": 1571,
      "悉": 1572,
      "悌": 1573,
      "悍": 1574,
      "悒": 1575,
      "悔": 1576,
      "悖": 1577,
      "悚": 1578,
      "悛": 1579,
      "悟": 1580,
      "悠": 1581,
      "患": 1582,
      "悦": 1583,
      "您": 1584,
      "悬": 1585,
      "悭": 1586,
      "悯": 1587,
      "悲": 1588,
      "悴": 1589,
      "悸": 1590,
      "悻": 1591,
      "悼": 1592,
      "情": 1593,
      "惆": 1594,
      "惇": 1595,
      "惊": 1596,
      "惋": 1597,
      "惑": 1598,
      "惕": 1599,
      "惘": 1600,
      "惚": 1601,
      "惜": 1602,
      "惟": 1603,
      "惠": 1604,
      "惦": 1605,
      "惧": 1606,
      "惨": 1607,
      "惩": 1608,
      "惫": 1609,
      "惬": 1610,
      "惭": 1611,
      "惮": 1612,
      "惯": 1613,
      "惰": 1614,
      "想": 1615,
      "惴": 1616,
      "惶": 1617,
      "惹": 1618,
      "惺": 1619,
      "愀": 1620,
      "愁": 1621,
      "愆": 1622,
      "愈": 1623,
      "愉": 1624,
      "愍": 1625,
      "愎": 1626,
      "意": 1627,
      "愕": 1628,
      "愚": 1629,
      "感": 1630,
      "愠": 1631,
      "愣": 1632,
      "愤": 1633,
      "愧": 1634,
      "愫": 1635,
      "愿": 1636,
      "慈": 1637,
      "慌": 1638,
      "慎": 1639,
      "慑": 1640,
      "慕": 1641,
      "慢": 1642,
      "慧": 1643,
      "慨": 1644,
      "慰": 1645,
      "慵": 1646,
      "慷": 1647,
      "憋": 1648,
      "憎": 1649,
      "憔": 1650,
      "憝": 1651,
      "憧": 1652,
      "憨": 1653,
      "憩": 1654,
      "憬": 1655,
      "憾": 1656,
      "懂": 1657,
      "懈": 1658,
      "懊": 1659,
      "懑": 1660,
      "懒": 1661,
      "懦": 1662,
      "懵": 1663,
      "懿": 1664,
      "戆": 1665,
      "戈": 1666,
      "戊": 1667,
      "戌": 1668,
      "戍": 1669,
      "戎": 1670,
      "戏": 1671,
      "成": 1672,
      "我": 1673,
      "戒": 1674,
      "戕": 1675,
      "或": 1676,
      "战": 1677,
      "戚": 1678,
      "戛": 1679,
      "戟": 1680,
      "戢": 1681,
      "截": 1682,
      "戮": 1683,
      "戳": 1684,
      "戴": 1685,
      "户": 1686,
      "戾": 1687,
      "房": 1688,
      "所": 1689,
      "扁": 1690,
      "扇": 1691,
      "扈": 1692,
      "扉": 1693,
      "手": 1694,
      "才": 1695,
      "扎": 1696,
      "扑": 1697,
      "扒": 1698,
      "打": 1699,
      "扔": 1700,
      "托": 1701,
      "扛": 1702,
      "扣": 1703,
      "执": 1704,
      "扩": 1705,
      "扪": 1706,
      "扫": 1707,
      "扬": 1708,
      "扭": 1709,
      "扮": 1710,
      "扯": 1711,
      "扰": 1712,
      "扳": 1713,
      "扶": 1714,
      "批": 1715,
      "扼": 1716,
      "找": 1717,
      "承": 1718,
      "技": 1719,
      "抄": 1720,
      "抉": 1721,
      "把": 1722,
      "抑": 1723,
      "抒": 1724,
      "抓": 1725,
      "投": 1726,
      "抖": 1727,
      "抗": 1728,
      "折": 1729,
      "抚": 1730,
      "抛": 1731,
      "抡": 1732,
      "抢": 1733,
      "护": 1734,
      "报": 1735,
      "披": 1736,
      "抬": 1737,
      "抱": 1738,
      "抵": 1739,
      "抹": 1740,
      "押": 1741,
      "抽": 1742,
      "抿": 1743,
      "拂": 1744,
      "拄": 1745,
      "担": 1746,
      "拆": 1747,
      "拇": 1748,
      "拈": 1749,
      "拉": 1750,
      "拊": 1751,
      "拌": 1752,
      "拍": 1753,
      "拐": 1754,
      "拒": 1755,
      "拓": 1756,
      "拔": 1757,
      "拖": 1758,
      "拗": 1759,
      "拘": 1760,
      "拙": 1761,
      "拚": 1762,
      "招": 1763,
      "拜": 1764,
      "拟": 1765,
      "拢": 1766,
      "拣": 1767,
      "拥": 1768,
      "拦": 1769,
      "拧": 1770,
      "拨": 1771,
      "择": 1772,
      "拫": 1773,
      "括": 1774,
      "拭": 1775,
      "拯": 1776,
      "拱": 1777,
      "拳": 1778,
      "拷": 1779,
      "拼": 1780,
      "拽": 1781,
      "拾": 1782,
      "拿": 1783,
      "持": 1784,
      "挂": 1785,
      "指": 1786,
      "按": 1787,
      "挎": 1788,
      "挑": 1789,
      "挖": 1790,
      "挚": 1791,
      "挛": 1792,
      "挞": 1793,
      "挟": 1794,
      "挠": 1795,
      "挡": 1796,
      "挢": 1797,
      "挣": 1798,
      "挤": 1799,
      "挥": 1800,
      "挨": 1801,
      "挪": 1802,
      "挫": 1803,
      "振": 1804,
      "挲": 1805,
      "挹": 1806,
      "挺": 1807,
      "挽": 1808,
      "捂": 1809,
      "捅": 1810,
      "捆": 1811,
      "捉": 1812,
      "捋": 1813,
      "捎": 1814,
      "捏": 1815,
      "捐": 1816,
      "捕": 1817,
      "捞": 1818,
      "损": 1819,
      "捡": 1820,
      "换": 1821,
      "捣": 1822,
      "捤": 1823,
      "捧": 1824,
      "捨": 1825,
      "捭": 1826,
      "据": 1827,
      "捱": 1828,
      "捶": 1829,
      "捷": 1830,
      "捺": 1831,
      "捻": 1832,
      "捽": 1833,
      "掀": 1834,
      "掂": 1835,
      "掇": 1836,
      "授": 1837,
      "掉": 1838,
      "掌": 1839,
      "掏": 1840,
      "排": 1841,
      "掖": 1842,
      "掘": 1843,
      "掠": 1844,
      "探": 1845,
      "掣": 1846,
      "接": 1847,
      "控": 1848,
      "推": 1849,
      "掩": 1850,
      "措": 1851,
      "掬": 1852,
      "掮": 1853,
      "掳": 1854,
      "掴": 1855,
      "掷": 1856,
      "掺": 1857,
      "掼": 1858,
      "揄": 1859,
      "揉": 1860,
      "揍": 1861,
      "揎": 1862,
      "描": 1863,
      "提": 1864,
      "插": 1865,
      "揖": 1866,
      "握": 1867,
      "揣": 1868,
      "揩": 1869,
      "揪": 1870,
      "揭": 1871,
      "援": 1872,
      "揶": 1873,
      "揽": 1874,
      "揿": 1875,
      "搀": 1876,
      "搁": 1877,
      "搂": 1878,
      "搅": 1879,
      "搏": 1880,
      "搐": 1881,
      "搓": 1882,
      "搔": 1883,
      "搜": 1884,
      "搞": 1885,
      "搠": 1886,
      "搢": 1887,
      "搪": 1888,
      "搬": 1889,
      "搭": 1890,
      "携": 1891,
      "搽": 1892,
      "摄": 1893,
      "摆": 1894,
      "摇": 1895,
      "摊": 1896,
      "摒": 1897,
      "摔": 1898,
      "摘": 1899,
      "摧": 1900,
      "摩": 1901,
      "摸": 1902,
      "撂": 1903,
      "撄": 1904,
      "撅": 1905,
      "撇": 1906,
      "撑": 1907,
      "撒": 1908,
      "撕": 1909,
      "撙": 1910,
      "撞": 1911,
      "撤": 1912,
      "撩": 1913,
      "撬": 1914,
      "播": 1915,
      "撮": 1916,
      "撰": 1917,
      "撵": 1918,
      "撺": 1919,
      "撼": 1920,
      "擂": 1921,
      "擅": 1922,
      "操": 1923,
      "擎": 1924,
      "擒": 1925,
      "擘": 1926,
      "擞": 1927,
      "擠": 1928,
      "擤": 1929,
      "擦": 1930,
      "攀": 1931,
      "攒": 1932,
      "攘": 1933,
      "支": 1934,
      "收": 1935,
      "攸": 1936,
      "改": 1937,
      "攻": 1938,
      "放": 1939,
      "政": 1940,
      "敁": 1941,
      "故": 1942,
      "效": 1943,
      "敉": 1944,
      "敌": 1945,
      "敎": 1946,
      "敏": 1947,
      "救": 1948,
      "敕": 1949,
      "敖": 1950,
      "教": 1951,
      "敛": 1952,
      "敝": 1953,
      "敞": 1954,
      "敢": 1955,
      "散": 1956,
      "敦": 1957,
      "敬": 1958,
      "数": 1959,
      "敲": 1960,
      "整": 1961,
      "敷": 1962,
      "文": 1963,
      "斋": 1964,
      "斑": 1965,
      "斓": 1966,
      "斗": 1967,
      "料": 1968,
      "斛": 1969,
      "斜": 1970,
      "斟": 1971,
      "斤": 1972,
      "斥": 1973,
      "斧": 1974,
      "斩": 1975,
      "斫": 1976,
      "断": 1977,
      "斯": 1978,
      "新": 1979,
      "方": 1980,
      "施": 1981,
      "旁": 1982,
      "旃": 1983,
      "旄": 1984,
      "旅": 1985,
      "旋": 1986,
      "旌": 1987,
      "旎": 1988,
      "族": 1989,
      "旖": 1990,
      "旗": 1991,
      "无": 1992,
      "旡": 1993,
      "既": 1994,
      "日": 1995,
      "旦": 1996,
      "旧": 1997,
      "旨": 1998,
      "早": 1999,
      "旬": 2000,
      "旭": 2001,
      "旱": 2002,
      "旲": 2003,
      "时": 2004,
      "旷": 2005,
      "旺": 2006,
      "昂": 2007,
      "昃": 2008,
      "昆": 2009,
      "昇": 2010,
      "昊": 2011,
      "昌": 2012,
      "明": 2013,
      "昏": 2014,
      "易": 2015,
      "昔": 2016,
      "昕": 2017,
      "昙": 2018,
      "星": 2019,
      "映": 2020,
      "春": 2021,
      "昧": 2022,
      "昨": 2023,
      "昭": 2024,
      "是": 2025,
      "昵": 2026,
      "昼": 2027,
      "昽": 2028,
      "显": 2029,
      "晃": 2030,
      "晋": 2031,
      "晌": 2032,
      "晏": 2033,
      "晒": 2034,
      "晓": 2035,
      "晕": 2036,
      "晖": 2037,
      "晗": 2038,
      "晚": 2039,
      "晤": 2040,
      "晦": 2041,
      "晨": 2042,
      "普": 2043,
      "景": 2044,
      "晰": 2045,
      "晴": 2046,
      "晶": 2047,
      "智": 2048,
      "暂": 2049,
      "暄": 2050,
      "暇": 2051,
      "暈": 2052,
      "暌": 2053,
      "暍": 2054,
      "暐": 2055,
      "暑": 2056,
      "暖": 2057,
      "暗": 2058,
      "暧": 2059,
      "暨": 2060,
      "暮": 2061,
      "暴": 2062,
      "暾": 2063,
      "曙": 2064,
      "曝": 2065,
      "曦": 2066,
      "曰": 2067,
      "曲": 2068,
      "曳": 2069,
      "更": 2070,
      "曹": 2071,
      "曼": 2072,
      "曾": 2073,
      "替": 2074,
      "最": 2075,
      "月": 2076,
      "有": 2077,
      "朋": 2078,
      "服": 2079,
      "朔": 2080,
      "朕": 2081,
      "朗": 2082,
      "望": 2083,
      "朝": 2084,
      "期": 2085,
      "朦": 2086,
      "木": 2087,
      "未": 2088,
      "末": 2089,
      "本": 2090,
      "札": 2091,
      "朮": 2092,
      "术": 2093,
      "朱": 2094,
      "朴": 2095,
      "朵": 2096,
      "机": 2097,
      "朽": 2098,
      "杀": 2099,
      "杂": 2100,
      "权": 2101,
      "杆": 2102,
      "杉": 2103,
      "李": 2104,
      "杏": 2105,
      "材": 2106,
      "村": 2107,
      "杓": 2108,
      "杖": 2109,
      "杜": 2110,
      "杞": 2111,
      "束": 2112,
      "杠": 2113,
      "条": 2114,
      "来": 2115,
      "杨": 2116,
      "杭": 2117,
      "杯": 2118,
      "杰": 2119,
      "杲": 2120,
      "杳": 2121,
      "杵": 2122,
      "杼": 2123,
      "松": 2124,
      "板": 2125,
      "极": 2126,
      "构": 2127,
      "枉": 2128,
      "析": 2129,
      "枕": 2130,
      "林": 2131,
      "枘": 2132,
      "枚": 2133,
      "果": 2134,
      "枝": 2135,
      "枢": 2136,
      "枣": 2137,
      "枪": 2138,
      "枫": 2139,
      "枭": 2140,
      "枯": 2141,
      "枰": 2142,
      "架": 2143,
      "枷": 2144,
      "柄": 2145,
      "柏": 2146,
      "某": 2147,
      "染": 2148,
      "柔": 2149,
      "柚": 2150,
      "柜": 2151,
      "柢": 2152,
      "查": 2153,
      "柩": 2154,
      "柬": 2155,
      "柯": 2156,
      "柱": 2157,
      "柳": 2158,
      "柴": 2159,
      "柿": 2160,
      "栅": 2161,
      "标": 2162,
      "栈": 2163,
      "栋": 2164,
      "栏": 2165,
      "树": 2166,
      "栖": 2167,
      "栗": 2168,
      "校": 2169,
      "栩": 2170,
      "株": 2171,
      "样": 2172,
      "核": 2173,
      "根": 2174,
      "栺": 2175,
      "格": 2176,
      "栽": 2177,
      "桀": 2178,
      "桁": 2179,
      "桂": 2180,
      "桃": 2181,
      "桅": 2182,
      "框": 2183,
      "案": 2184,
      "桉": 2185,
      "桌": 2186,
      "桐": 2187,
      "桑": 2188,
      "桓": 2189,
      "桔": 2190,
      "桕": 2191,
      "桠": 2192,
      "档": 2193,
      "桥": 2194,
      "桧": 2195,
      "桨": 2196,
      "桩": 2197,
      "桶": 2198,
      "梁": 2199,
      "梃": 2200,
      "梅": 2201,
      "梆": 2202,
      "梓": 2203,
      "梗": 2204,
      "梢": 2205,
      "梦": 2206,
      "梧": 2207,
      "梨": 2208,
      "梭": 2209,
      "梯": 2210,
      "械": 2211,
      "梳": 2212,
      "梵": 2213,
      "检": 2214,
      "棉": 2215,
      "棋": 2216,
      "棍": 2217,
      "棒": 2218,
      "棕": 2219,
      "棘": 2220,
      "棚": 2221,
      "棠": 2222,
      "森": 2223,
      "棱": 2224,
      "棵": 2225,
      "棺": 2226,
      "椅": 2227,
      "植": 2228,
      "椎": 2229,
      "椒": 2230,
      "椟": 2231,
      "椭": 2232,
      "椰": 2233,
      "椽": 2234,
      "椿": 2235,
      "楔": 2236,
      "楚": 2237,
      "楞": 2238,
      "楣": 2239,
      "楷": 2240,
      "楹": 2241,
      "楼": 2242,
      "概": 2243,
      "榄": 2244,
      "榈": 2245,
      "榕": 2246,
      "榜": 2247,
      "榫": 2248,
      "榭": 2249,
      "榴": 2250,
      "榷": 2251,
      "榻": 2252,
      "槁": 2253,
      "槃": 2254,
      "槊": 2255,
      "槌": 2256,
      "槎": 2257,
      "槐": 2258,
      "槛": 2259,
      "樊": 2260,
      "樑": 2261,
      "模": 2262,
      "横": 2263,
      "樯": 2264,
      "樱": 2265,
      "樵": 2266,
      "樽": 2267,
      "橄": 2268,
      "橇": 2269,
      "橐": 2270,
      "橘": 2271,
      "橙": 2272,
      "橛": 2273,
      "橫": 2274,
      "橱": 2275,
      "橹": 2276,
      "檀": 2277,
      "檐": 2278,
      "欠": 2279,
      "次": 2280,
      "欢": 2281,
      "欣": 2282,
      "欤": 2283,
      "欧": 2284,
      "欲": 2285,
      "欸": 2286,
      "欺": 2287,
      "款": 2288,
      "歃": 2289,
      "歇": 2290,
      "歉": 2291,
      "歌": 2292,
      "歡": 2293,
      "止": 2294,
      "正": 2295,
      "此": 2296,
      "步": 2297,
      "武": 2298,
      "歧": 2299,
      "歪": 2300,
      "歹": 2301,
      "死": 2302,
      "歼": 2303,
      "殁": 2304,
      "殂": 2305,
      "殃": 2306,
      "殄": 2307,
      "殆": 2308,
      "殉": 2309,
      "殊": 2310,
      "残": 2311,
      "殍": 2312,
      "殒": 2313,
      "殓": 2314,
      "殖": 2315,
      "殚": 2316,
      "殡": 2317,
      "殴": 2318,
      "段": 2319,
      "殷": 2320,
      "殿": 2321,
      "毁": 2322,
      "毅": 2323,
      "毋": 2324,
      "母": 2325,
      "毎": 2326,
      "每": 2327,
      "毒": 2328,
      "比": 2329,
      "毕": 2330,
      "毗": 2331,
      "毙": 2332,
      "毛": 2333,
      "毡": 2334,
      "毫": 2335,
      "毯": 2336,
      "氅": 2337,
      "氏": 2338,
      "氐": 2339,
      "民": 2340,
      "氓": 2341,
      "气": 2342,
      "氛": 2343,
      "氤": 2344,
      "氲": 2345,
      "氳": 2346,
      "水": 2347,
      "永": 2348,
      "氺": 2349,
      "汁": 2350,
      "求": 2351,
      "汄": 2352,
      "汇": 2353,
      "汉": 2354,
      "汊": 2355,
      "汕": 2356,
      "汗": 2357,
      "汝": 2358,
      "江": 2359,
      "池": 2360,
      "污": 2361,
      "汤": 2362,
      "汨": 2363,
      "汩": 2364,
      "汪": 2365,
      "汴": 2366,
      "汸": 2367,
      "汹": 2368,
      "汽": 2369,
      "汾": 2370,
      "沁": 2371,
      "沃": 2372,
      "沅": 2373,
      "沈": 2374,
      "沉": 2375,
      "沌": 2376,
      "沐": 2377,
      "沓": 2378,
      "沖": 2379,
      "沙": 2380,
      "沛": 2381,
      "沟": 2382,
      "没": 2383,
      "沥": 2384,
      "沦": 2385,
      "沧": 2386,
      "沫": 2387,
      "沬": 2388,
      "沮": 2389,
      "沱": 2390,
      "河": 2391,
      "沸": 2392,
      "油": 2393,
      "治": 2394,
      "沼": 2395,
      "沽": 2396,
      "沾": 2397,
      "沿": 2398,
      "泄": 2399,
      "泅": 2400,
      "泉": 2401,
      "泊": 2402,
      "泌": 2403,
      "泓": 2404,
      "法": 2405,
      "泗": 2406,
      "泛": 2407,
      "泞": 2408,
      "泠": 2409,
      "泡": 2410,
      "波": 2411,
      "泣": 2412,
      "泥": 2413,
      "注": 2414,
      "泪": 2415,
      "泫": 2416,
      "泯": 2417,
      "泰": 2418,
      "泳": 2419,
      "泻": 2420,
      "泼": 2421,
      "泽": 2422,
      "泾": 2423,
      "洁": 2424,
      "洋": 2425,
      "洎": 2426,
      "洒": 2427,
      "洗": 2428,
      "洛": 2429,
      "洞": 2430,
      "津": 2431,
      "洪": 2432,
      "洱": 2433,
      "洲": 2434,
      "洵": 2435,
      "活": 2436,
      "洼": 2437,
      "洽": 2438,
      "派": 2439,
      "流": 2440,
      "浃": 2441,
      "浅": 2442,
      "浆": 2443,
      "浇": 2444,
      "浊": 2445,
      "测": 2446,
      "济": 2447,
      "浑": 2448,
      "浒": 2449,
      "浓": 2450,
      "浙": 2451,
      "浚": 2452,
      "浜": 2453,
      "浣": 2454,
      "浦": 2455,
      "浩": 2456,
      "浪": 2457,
      "浮": 2458,
      "浴": 2459,
      "海": 2460,
      "浸": 2461,
      "涂": 2462,
      "涅": 2463,
      "消": 2464,
      "涉": 2465,
      "涌": 2466,
      "涎": 2467,
      "涓": 2468,
      "涔": 2469,
      "涕": 2470,
      "涛": 2471,
      "涟": 2472,
      "涡": 2473,
      "涣": 2474,
      "涤": 2475,
      "润": 2476,
      "涧": 2477,
      "涨": 2478,
      "涩": 2479,
      "涮": 2480,
      "涯": 2481,
      "液": 2482,
      "涵": 2483,
      "涿": 2484,
      "淅": 2485,
      "淆": 2486,
      "淇": 2487,
      "淋": 2488,
      "淌": 2489,
      "淑": 2490,
      "淘": 2491,
      "淙": 2492,
      "淚": 2493,
      "淡": 2494,
      "淤": 2495,
      "淩": 2496,
      "淫": 2497,
      "淬": 2498,
      "淮": 2499,
      "深": 2500,
      "淳": 2501,
      "混": 2502,
      "淹": 2503,
      "添": 2504,
      "清": 2505,
      "渊": 2506,
      "渍": 2507,
      "渎": 2508,
      "渐": 2509,
      "渔": 2510,
      "渗": 2511,
      "渚": 2512,
      "渝": 2513,
      "渠": 2514,
      "渡": 2515,
      "渣": 2516,
      "渥": 2517,
      "温": 2518,
      "渭": 2519,
      "港": 2520,
      "渲": 2521,
      "渴": 2522,
      "游": 2523,
      "渺": 2524,
      "湃": 2525,
      "湍": 2526,
      "湖": 2527,
      "湘": 2528,
      "湛": 2529,
      "湮": 2530,
      "湾": 2531,
      "湿": 2532,
      "溃": 2533,
      "溅": 2534,
      "溆": 2535,
      "溉": 2536,
      "源": 2537,
      "準": 2538,
      "溜": 2539,
      "溟": 2540,
      "溢": 2541,
      "溪": 2542,
      "溯": 2543,
      "溶": 2544,
      "溺": 2545,
      "滁": 2546,
      "滂": 2547,
      "滇": 2548,
      "滋": 2549,
      "滑": 2550,
      "滓": 2551,
      "滔": 2552,
      "滕": 2553,
      "滚": 2554,
      "滞": 2555,
      "满": 2556,
      "滥": 2557,
      "滨": 2558,
      "滩": 2559,
      "滴": 2560,
      "漂": 2561,
      "漆": 2562,
      "漉": 2563,
      "漏": 2564,
      "漓": 2565,
      "演": 2566,
      "漠": 2567,
      "漤": 2568,
      "漩": 2569,
      "漪": 2570,
      "漫": 2571,
      "漱": 2572,
      "漾": 2573,
      "潇": 2574,
      "潘": 2575,
      "潜": 2576,
      "潞": 2577,
      "潢": 2578,
      "潦": 2579,
      "潭": 2580,
      "潮": 2581,
      "潰": 2582,
      "潸": 2583,
      "潺": 2584,
      "潼": 2585,
      "澄": 2586,
      "澈": 2587,
      "澍": 2588,
      "澎": 2589,
      "澜": 2590,
      "澡": 2591,
      "澳": 2592,
      "澶": 2593,
      "激": 2594,
      "濛": 2595,
      "濠": 2596,
      "濡": 2597,
      "濬": 2598,
      "瀑": 2599,
      "瀛": 2600,
      "灌": 2601,
      "火": 2602,
      "灭": 2603,
      "灯": 2604,
      "灰": 2605,
      "灵": 2606,
      "灶": 2607,
      "灸": 2608,
      "灼": 2609,
      "災": 2610,
      "灾": 2611,
      "灿": 2612,
      "炀": 2613,
      "炅": 2614,
      "炉": 2615,
      "炊": 2616,
      "炎": 2617,
      "炒": 2618,
      "炕": 2619,
      "炖": 2620,
      "炙": 2621,
      "炫": 2622,
      "炬": 2623,
      "炭": 2624,
      "炮": 2625,
      "炯": 2626,
      "炳": 2627,
      "炷": 2628,
      "炸": 2629,
      "点": 2630,
      "炼": 2631,
      "炽": 2632,
      "烁": 2633,
      "烂": 2634,
      "烈": 2635,
      "烘": 2636,
      "烙": 2637,
      "烛": 2638,
      "烜": 2639,
      "烟": 2640,
      "烤": 2641,
      "烦": 2642,
      "烧": 2643,
      "烩": 2644,
      "烫": 2645,
      "烬": 2646,
      "热": 2647,
      "烹": 2648,
      "烽": 2649,
      "焉": 2650,
      "焊": 2651,
      "焕": 2652,
      "焘": 2653,
      "焙": 2654,
      "焚": 2655,
      "焦": 2656,
      "焰": 2657,
      "然": 2658,
      "煊": 2659,
      "煌": 2660,
      "煎": 2661,
      "煞": 2662,
      "煤": 2663,
      "煦": 2664,
      "照": 2665,
      "煨": 2666,
      "煮": 2667,
      "煽": 2668,
      "熄": 2669,
      "熊": 2670,
      "熏": 2671,
      "熔": 2672,
      "熙": 2673,
      "熟": 2674,
      "熨": 2675,
      "熬": 2676,
      "熹": 2677,
      "燃": 2678,
      "燎": 2679,
      "燕": 2680,
      "燥": 2681,
      "燧": 2682,
      "爆": 2683,
      "爪": 2684,
      "爬": 2685,
      "爰": 2686,
      "爱": 2687,
      "爵": 2688,
      "父": 2689,
      "爷": 2690,
      "爸": 2691,
      "爹": 2692,
      "爽": 2693,
      "爿": 2694,
      "片": 2695,
      "版": 2696,
      "牌": 2697,
      "牒": 2698,
      "牙": 2699,
      "牛": 2700,
      "牟": 2701,
      "牡": 2702,
      "牢": 2703,
      "牧": 2704,
      "物": 2705,
      "牯": 2706,
      "牲": 2707,
      "牵": 2708,
      "特": 2709,
      "牺": 2710,
      "犀": 2711,
      "犁": 2712,
      "犊": 2713,
      "犍": 2714,
      "犒": 2715,
      "犟": 2716,
      "犬": 2717,
      "犯": 2718,
      "状": 2719,
      "犷": 2720,
      "犹": 2721,
      "狂": 2722,
      "狄": 2723,
      "狈": 2724,
      "狐": 2725,
      "狗": 2726,
      "狞": 2727,
      "狠": 2728,
      "狡": 2729,
      "独": 2730,
      "狭": 2731,
      "狮": 2732,
      "狯": 2733,
      "狰": 2734,
      "狱": 2735,
      "狲": 2736,
      "狴": 2737,
      "狷": 2738,
      "狸": 2739,
      "狼": 2740,
      "猎": 2741,
      "猖": 2742,
      "猛": 2743,
      "猜": 2744,
      "猝": 2745,
      "猢": 2746,
      "猥": 2747,
      "猩": 2748,
      "猪": 2749,
      "猫": 2750,
      "猬": 2751,
      "献": 2752,
      "猱": 2753,
      "猴": 2754,
      "猾": 2755,
      "猿": 2756,
      "獍": 2757,
      "獐": 2758,
      "獒": 2759,
      "獗": 2760,
      "獠": 2761,
      "獾": 2762,
      "玄": 2763,
      "率": 2764,
      "玉": 2765,
      "王": 2766,
      "玎": 2767,
      "玑": 2768,
      "玛": 2769,
      "玩": 2770,
      "玫": 2771,
      "环": 2772,
      "现": 2773,
      "玲": 2774,
      "玷": 2775,
      "玺": 2776,
      "珀": 2777,
      "珊": 2778,
      "珍": 2779,
      "珑": 2780,
      "珠": 2781,
      "珣": 2782,
      "班": 2783,
      "珮": 2784,
      "珰": 2785,
      "琀": 2786,
      "球": 2787,
      "琅": 2788,
      "理": 2789,
      "琉": 2790,
      "琐": 2791,
      "琢": 2792,
      "琥": 2793,
      "琪": 2794,
      "琳": 2795,
      "琴": 2796,
      "琵": 2797,
      "琶": 2798,
      "琼": 2799,
      "瑕": 2800,
      "瑙": 2801,
      "瑚": 2802,
      "瑛": 2803,
      "瑜": 2804,
      "瑞": 2805,
      "瑟": 2806,
      "瑯": 2807,
      "瑰": 2808,
      "瑶": 2809,
      "璃": 2810,
      "璇": 2811,
      "璉": 2812,
      "璋": 2813,
      "璞": 2814,
      "璧": 2815,
      "瓜": 2816,
      "瓢": 2817,
      "瓣": 2818,
      "瓦": 2819,
      "瓮": 2820,
      "瓯": 2821,
      "瓶": 2822,
      "瓷": 2823,
      "甘": 2824,
      "甚": 2825,
      "甜": 2826,
      "生": 2827,
      "甥": 2828,
      "用": 2829,
      "甩": 2830,
      "甫": 2831,
      "甬": 2832,
      "甭": 2833,
      "田": 2834,
      "由": 2835,
      "甲": 2836,
      "申": 2837,
      "甴": 2838,
      "电": 2839,
      "甶": 2840,
      "男": 2841,
      "甸": 2842,
      "町": 2843,
      "画": 2844,
      "畅": 2845,
      "畋": 2846,
      "界": 2847,
      "畏": 2848,
      "畔": 2849,
      "留": 2850,
      "畜": 2851,
      "畤": 2852,
      "略": 2853,
      "畦": 2854,
      "番": 2855,
      "異": 2856,
      "畴": 2857,
      "畸": 2858,
      "畿": 2859,
      "疆": 2860,
      "疏": 2861,
      "疑": 2862,
      "疔": 2863,
      "疗": 2864,
      "疙": 2865,
      "疚": 2866,
      "疟": 2867,
      "疤": 2868,
      "疫": 2869,
      "疮": 2870,
      "疯": 2871,
      "疲": 2872,
      "疸": 2873,
      "疹": 2874,
      "疼": 2875,
      "疽": 2876,
      "疾": 2877,
      "病": 2878,
      "症": 2879,
      "痉": 2880,
      "痊": 2881,
      "痒": 2882,
      "痕": 2883,
      "痘": 2884,
      "痛": 2885,
      "痞": 2886,
      "痣": 2887,
      "痤": 2888,
      "痨": 2889,
      "痪": 2890,
      "痰": 2891,
      "痴": 2892,
      "痹": 2893,
      "瘀": 2894,
      "瘁": 2895,
      "瘐": 2896,
      "瘟": 2897,
      "瘢": 2898,
      "瘤": 2899,
      "瘦": 2900,
      "瘩": 2901,
      "瘪": 2902,
      "瘫": 2903,
      "瘴": 2904,
      "瘸": 2905,
      "瘼": 2906,
      "瘾": 2907,
      "癖": 2908,
      "癞": 2909,
      "癫": 2910,
      "癮": 2911,
      "癯": 2912,
      "癸": 2913,
      "登": 2914,
      "白": 2915,
      "百": 2916,
      "皁": 2917,
      "皂": 2918,
      "的": 2919,
      "皆": 2920,
      "皇": 2921,
      "皈": 2922,
      "皋": 2923,
      "皎": 2924,
      "皑": 2925,
      "皓": 2926,
      "皖": 2927,
      "皙": 2928,
      "皝": 2929,
      "皮": 2930,
      "皱": 2931,
      "皿": 2932,
      "盂": 2933,
      "盅": 2934,
      "盆": 2935,
      "盈": 2936,
      "益": 2937,
      "盎": 2938,
      "盏": 2939,
      "盐": 2940,
      "监": 2941,
      "盒": 2942,
      "盔": 2943,
      "盖": 2944,
      "盗": 2945,
      "盘": 2946,
      "盛": 2947,
      "盟": 2948,
      "盥": 2949,
      "目": 2950,
      "盯": 2951,
      "盲": 2952,
      "直": 2953,
      "相": 2954,
      "盹": 2955,
      "盼": 2956,
      "盾": 2957,
      "省": 2958,
      "眄": 2959,
      "眇": 2960,
      "眈": 2961,
      "眉": 2962,
      "看": 2963,
      "真": 2964,
      "眠": 2965,
      "眦": 2966,
      "眨": 2967,
      "眩": 2968,
      "眬": 2969,
      "眯": 2970,
      "眶": 2971,
      "眷": 2972,
      "眸": 2973,
      "眺": 2974,
      "眼": 2975,
      "着": 2976,
      "睁": 2977,
      "睇": 2978,
      "睐": 2979,
      "睑": 2980,
      "睛": 2981,
      "睡": 2982,
      "督": 2983,
      "睥": 2984,
      "睦": 2985,
      "睨": 2986,
      "睫": 2987,
      "睬": 2988,
      "睸": 2989,
      "睹": 2990,
      "睺": 2991,
      "睽": 2992,
      "睾": 2993,
      "睿": 2994,
      "瞄": 2995,
      "瞅": 2996,
      "瞌": 2997,
      "瞎": 2998,
      "瞑": 2999,
      "瞒": 3000,
      "瞟": 3001,
      "瞠": 3002,
      "瞥": 3003,
      "瞧": 3004,
      "瞩": 3005,
      "瞪": 3006,
      "瞬": 3007,
      "瞭": 3008,
      "瞳": 3009,
      "瞻": 3010,
      "瞽": 3011,
      "瞿": 3012,
      "矇": 3013,
      "矍": 3014,
      "矛": 3015,
      "矜": 3016,
      "矢": 3017,
      "矣": 3018,
      "知": 3019,
      "矩": 3020,
      "矫": 3021,
      "短": 3022,
      "矮": 3023,
      "石": 3024,
      "矾": 3025,
      "矿": 3026,
      "码": 3027,
      "砂": 3028,
      "砌": 3029,
      "砍": 3030,
      "砒": 3031,
      "研": 3032,
      "砖": 3033,
      "砚": 3034,
      "砟": 3035,
      "砧": 3036,
      "砰": 3037,
      "破": 3038,
      "砸": 3039,
      "砺": 3040,
      "砾": 3041,
      "硃": 3042,
      "硕": 3043,
      "硝": 3044,
      "硫": 3045,
      "硬": 3046,
      "确": 3047,
      "碌": 3048,
      "碍": 3049,
      "碎": 3050,
      "碑": 3051,
      "碗": 3052,
      "碜": 3053,
      "碟": 3054,
      "碧": 3055,
      "碰": 3056,
      "碾": 3057,
      "磁": 3058,
      "磅": 3059,
      "磊": 3060,
      "磋": 3061,
      "磐": 3062,
      "磔": 3063,
      "磕": 3064,
      "磨": 3065,
      "磬": 3066,
      "磷": 3067,
      "磺": 3068,
      "礁": 3069,
      "礴": 3070,
      "示": 3071,
      "礼": 3072,
      "社": 3073,
      "祀": 3074,
      "祁": 3075,
      "祅": 3076,
      "祈": 3077,
      "祐": 3078,
      "祖": 3079,
      "祚": 3080,
      "祛": 3081,
      "祜": 3082,
      "祝": 3083,
      "神": 3084,
      "祟": 3085,
      "祠": 3086,
      "祥": 3087,
      "祧": 3088,
      "票": 3089,
      "祭": 3090,
      "祯": 3091,
      "祷": 3092,
      "祸": 3093,
      "禀": 3094,
      "禁": 3095,
      "禄": 3096,
      "禅": 3097,
      "福": 3098,
      "禧": 3099,
      "禹": 3100,
      "离": 3101,
      "禽": 3102,
      "禾": 3103,
      "秀": 3104,
      "私": 3105,
      "秃": 3106,
      "秉": 3107,
      "秋": 3108,
      "种": 3109,
      "科": 3110,
      "秘": 3111,
      "秣": 3112,
      "秤": 3113,
      "秦": 3114,
      "秧": 3115,
      "秩": 3116,
      "积": 3117,
      "称": 3118,
      "移": 3119,
      "秽": 3120,
      "秾": 3121,
      "稀": 3122,
      "稃": 3123,
      "程": 3124,
      "稍": 3125,
      "税": 3126,
      "稔": 3127,
      "稚": 3128,
      "稠": 3129,
      "稣": 3130,
      "稳": 3131,
      "稷": 3132,
      "稻": 3133,
      "稼": 3134,
      "稽": 3135,
      "稿": 3136,
      "穆": 3137,
      "穗": 3138,
      "穠": 3139,
      "穴": 3140,
      "究": 3141,
      "穷": 3142,
      "穹": 3143,
      "空": 3144,
      "穿": 3145,
      "突": 3146,
      "窃": 3147,
      "窄": 3148,
      "窈": 3149,
      "窍": 3150,
      "窑": 3151,
      "窒": 3152,
      "窕": 3153,
      "窖": 3154,
      "窗": 3155,
      "窘": 3156,
      "窜": 3157,
      "窝": 3158,
      "窟": 3159,
      "窠": 3160,
      "窣": 3161,
      "窥": 3162,
      "窦": 3163,
      "窭": 3164,
      "窸": 3165,
      "窻": 3166,
      "窿": 3167,
      "立": 3168,
      "竖": 3169,
      "站": 3170,
      "竞": 3171,
      "竟": 3172,
      "章": 3173,
      "竣": 3174,
      "童": 3175,
      "竦": 3176,
      "竭": 3177,
      "端": 3178,
      "竹": 3179,
      "竺": 3180,
      "竿": 3181,
      "笃": 3182,
      "笄": 3183,
      "笆": 3184,
      "笈": 3185,
      "笋": 3186,
      "笏": 3187,
      "笑": 3188,
      "笔": 3189,
      "笙": 3190,
      "笛": 3191,
      "笞": 3192,
      "笠": 3193,
      "笥": 3194,
      "符": 3195,
      "笨": 3196,
      "笫": 3197,
      "第": 3198,
      "笳": 3199,
      "笺": 3200,
      "笼": 3201,
      "等": 3202,
      "筋": 3203,
      "筏": 3204,
      "筐": 3205,
      "筑": 3206,
      "筒": 3207,
      "答": 3208,
      "策": 3209,
      "筛": 3210,
      "筝": 3211,
      "筲": 3212,
      "筵": 3213,
      "筷": 3214,
      "筹": 3215,
      "签": 3216,
      "简": 3217,
      "箍": 3218,
      "箓": 3219,
      "箕": 3220,
      "算": 3221,
      "管": 3222,
      "箧": 3223,
      "箩": 3224,
      "箫": 3225,
      "箬": 3226,
      "箭": 3227,
      "箱": 3228,
      "箸": 3229,
      "篁": 3230,
      "篆": 3231,
      "篇": 3232,
      "篑": 3233,
      "篓": 3234,
      "篙": 3235,
      "篡": 3236,
      "篦": 3237,
      "篮": 3238,
      "篱": 3239,
      "篷": 3240,
      "篾": 3241,
      "簇": 3242,
      "簌": 3243,
      "簕": 3244,
      "簦": 3245,
      "簧": 3246,
      "簪": 3247,
      "簸": 3248,
      "簿": 3249,
      "籁": 3250,
      "籍": 3251,
      "米": 3252,
      "类": 3253,
      "粉": 3254,
      "粒": 3255,
      "粗": 3256,
      "粘": 3257,
      "粝": 3258,
      "粟": 3259,
      "粤": 3260,
      "粥": 3261,
      "粪": 3262,
      "粮": 3263,
      "粱": 3264,
      "粲": 3265,
      "粹": 3266,
      "粽": 3267,
      "精": 3268,
      "糊": 3269,
      "糕": 3270,
      "糖": 3271,
      "糙": 3272,
      "糜": 3273,
      "糟": 3274,
      "糠": 3275,
      "糯": 3276,
      "系": 3277,
      "紊": 3278,
      "素": 3279,
      "索": 3280,
      "紧": 3281,
      "紫": 3282,
      "累": 3283,
      "細": 3284,
      "絮": 3285,
      "綜": 3286,
      "綦": 3287,
      "網": 3288,
      "緒": 3289,
      "緙": 3290,
      "締": 3291,
      "縠": 3292,
      "縻": 3293,
      "繁": 3294,
      "纓": 3295,
      "纛": 3296,
      "纠": 3297,
      "纡": 3298,
      "红": 3299,
      "纣": 3300,
      "纤": 3301,
      "纥": 3302,
      "约": 3303,
      "级": 3304,
      "纨": 3305,
      "纪": 3306,
      "纬": 3307,
      "纭": 3308,
      "纯": 3309,
      "纱": 3310,
      "纲": 3311,
      "纳": 3312,
      "纵": 3313,
      "纶": 3314,
      "纷": 3315,
      "纸": 3316,
      "纹": 3317,
      "纺": 3318,
      "纽": 3319,
      "线": 3320,
      "绁": 3321,
      "练": 3322,
      "组": 3323,
      "绅": 3324,
      "细": 3325,
      "织": 3326,
      "终": 3327,
      "绉": 3328,
      "绊": 3329,
      "绌": 3330,
      "绍": 3331,
      "绎": 3332,
      "经": 3333,
      "绑": 3334,
      "绒": 3335,
      "结": 3336,
      "绔": 3337,
      "绕": 3338,
      "绘": 3339,
      "给": 3340,
      "绚": 3341,
      "绛": 3342,
      "络": 3343,
      "绝": 3344,
      "绞": 3345,
      "统": 3346,
      "绡": 3347,
      "绢": 3348,
      "绣": 3349,
      "绥": 3350,
      "绦": 3351,
      "继": 3352,
      "绩": 3353,
      "绪": 3354,
      "绫": 3355,
      "续": 3356,
      "绮": 3357,
      "绰": 3358,
      "绳": 3359,
      "维": 3360,
      "绵": 3361,
      "绷": 3362,
      "绸": 3363,
      "绺": 3364,
      "绻": 3365,
      "绽": 3366,
      "绾": 3367,
      "绿": 3368,
      "缀": 3369,
      "缁": 3370,
      "缄": 3371,
      "缅": 3372,
      "缆": 3373,
      "缈": 3374,
      "缎": 3375,
      "缒": 3376,
      "缓": 3377,
      "缔": 3378,
      "缕": 3379,
      "编": 3380,
      "缘": 3381,
      "缙": 3382,
      "缚": 3383,
      "缛": 3384,
      "缜": 3385,
      "缝": 3386,
      "缟": 3387,
      "缠": 3388,
      "缡": 3389,
      "缣": 3390,
      "缤": 3391,
      "缥": 3392,
      "缦": 3393,
      "缧": 3394,
      "缨": 3395,
      "缩": 3396,
      "缪": 3397,
      "缭": 3398,
      "缮": 3399,
      "缰": 3400,
      "缱": 3401,
      "缴": 3402,
      "缸": 3403,
      "缺": 3404,
      "罄": 3405,
      "罐": 3406,
      "网": 3407,
      "罔": 3408,
      "罕": 3409,
      "罗": 3410,
      "罘": 3411,
      "罚": 3412,
      "罢": 3413,
      "罩": 3414,
      "罪": 3415,
      "置": 3416,
      "署": 3417,
      "罴": 3418,
      "罾": 3419,
      "羁": 3420,
      "羊": 3421,
      "羌": 3422,
      "美": 3423,
      "羔": 3424,
      "羚": 3425,
      "羞": 3426,
      "羡": 3427,
      "群": 3428,
      "羯": 3429,
      "羲": 3430,
      "羹": 3431,
      "羽": 3432,
      "翁": 3433,
      "翅": 3434,
      "翌": 3435,
      "翎": 3436,
      "翔": 3437,
      "翕": 3438,
      "翘": 3439,
      "翠": 3440,
      "翡": 3441,
      "翦": 3442,
      "翩": 3443,
      "翰": 3444,
      "翱": 3445,
      "翳": 3446,
      "翻": 3447,
      "翼": 3448,
      "耀": 3449,
      "老": 3450,
      "考": 3451,
      "耄": 3452,
      "者": 3453,
      "耆": 3454,
      "耋": 3455,
      "而": 3456,
      "耍": 3457,
      "耐": 3458,
      "耕": 3459,
      "耗": 3460,
      "耙": 3461,
      "耨": 3462,
      "耳": 3463,
      "耶": 3464,
      "耸": 3465,
      "耻": 3466,
      "耽": 3467,
      "耿": 3468,
      "聂": 3469,
      "聆": 3470,
      "聊": 3471,
      "聋": 3472,
      "职": 3473,
      "聒": 3474,
      "联": 3475,
      "聘": 3476,
      "聚": 3477,
      "聩": 3478,
      "聪": 3479,
      "聱": 3480,
      "聿": 3481,
      "肃": 3482,
      "肆": 3483,
      "肇": 3484,
      "肉": 3485,
      "肋": 3486,
      "肌": 3487,
      "肓": 3488,
      "肖": 3489,
      "肘": 3490,
      "肚": 3491,
      "肛": 3492,
      "肝": 3493,
      "肠": 3494,
      "股": 3495,
      "肢": 3496,
      "肤": 3497,
      "肥": 3498,
      "肩": 3499,
      "肮": 3500,
      "肯": 3501,
      "肱": 3502,
      "育": 3503,
      "肴": 3504,
      "肺": 3505,
      "肾": 3506,
      "肿": 3507,
      "胀": 3508,
      "胁": 3509,
      "胂": 3510,
      "胃": 3511,
      "胄": 3512,
      "胆": 3513,
      "背": 3514,
      "胎": 3515,
      "胖": 3516,
      "胚": 3517,
      "胛": 3518,
      "胜": 3519,
      "胞": 3520,
      "胡": 3521,
      "胤": 3522,
      "胥": 3523,
      "胧": 3524,
      "胫": 3525,
      "胭": 3526,
      "胯": 3527,
      "胱": 3528,
      "胳": 3529,
      "胶": 3530,
      "胸": 3531,
      "能": 3532,
      "脂": 3533,
      "脆": 3534,
      "脉": 3535,
      "脊": 3536,
      "脍": 3537,
      "脏": 3538,
      "脐": 3539,
      "脑": 3540,
      "脓": 3541,
      "脔": 3542,
      "脖": 3543,
      "脘": 3544,
      "脚": 3545,
      "脯": 3546,
      "脱": 3547,
      "脸": 3548,
      "脾": 3549,
      "腆": 3550,
      "腊": 3551,
      "腋": 3552,
      "腌": 3553,
      "腐": 3554,
      "腑": 3555,
      "腔": 3556,
      "腕": 3557,
      "腥": 3558,
      "腮": 3559,
      "腰": 3560,
      "腴": 3561,
      "腹": 3562,
      "腻": 3563,
      "腼": 3564,
      "腾": 3565,
      "腿": 3566,
      "膀": 3567,
      "膂": 3568,
      "膊": 3569,
      "膏": 3570,
      "膑": 3571,
      "膛": 3572,
      "膜": 3573,
      "膝": 3574,
      "膨": 3575,
      "膳": 3576,
      "膺": 3577,
      "膻": 3578,
      "臀": 3579,
      "臂": 3580,
      "臃": 3581,
      "臆": 3582,
      "臊": 3583,
      "臍": 3584,
      "臏": 3585,
      "臑": 3586,
      "臝": 3587,
      "臣": 3588,
      "自": 3589,
      "臬": 3590,
      "臭": 3591,
      "至": 3592,
      "致": 3593,
      "臻": 3594,
      "臼": 3595,
      "臾": 3596,
      "舀": 3597,
      "舁": 3598,
      "舂": 3599,
      "舅": 3600,
      "舆": 3601,
      "舉": 3602,
      "舌": 3603,
      "舍": 3604,
      "舐": 3605,
      "舒": 3606,
      "舜": 3607,
      "舞": 3608,
      "舟": 3609,
      "航": 3610,
      "般": 3611,
      "舰": 3612,
      "舱": 3613,
      "舵": 3614,
      "舷": 3615,
      "舸": 3616,
      "船": 3617,
      "艄": 3618,
      "艇": 3619,
      "艘": 3620,
      "艟": 3621,
      "艮": 3622,
      "良": 3623,
      "艰": 3624,
      "色": 3625,
      "艳": 3626,
      "艺": 3627,
      "艽": 3628,
      "艾": 3629,
      "节": 3630,
      "芍": 3631,
      "芒": 3632,
      "芙": 3633,
      "芜": 3634,
      "芝": 3635,
      "芥": 3636,
      "芦": 3637,
      "芪": 3638,
      "芬": 3639,
      "花": 3640,
      "芳": 3641,
      "芷": 3642,
      "芸": 3643,
      "芹": 3644,
      "芽": 3645,
      "苇": 3646,
      "苍": 3647,
      "苏": 3648,
      "苓": 3649,
      "苔": 3650,
      "苕": 3651,
      "苗": 3652,
      "苛": 3653,
      "苜": 3654,
      "苞": 3655,
      "苟": 3656,
      "若": 3657,
      "苦": 3658,
      "苫": 3659,
      "英": 3660,
      "苹": 3661,
      "茁": 3662,
      "茂": 3663,
      "范": 3664,
      "茅": 3665,
      "茉": 3666,
      "茎": 3667,
      "茕": 3668,
      "茗": 3669,
      "茧": 3670,
      "茨": 3671,
      "茫": 3672,
      "茭": 3673,
      "茯": 3674,
      "茵": 3675,
      "茶": 3676,
      "茸": 3677,
      "茹": 3678,
      "荆": 3679,
      "荇": 3680,
      "草": 3681,
      "荊": 3682,
      "荏": 3683,
      "荐": 3684,
      "荒": 3685,
      "荔": 3686,
      "荜": 3687,
      "荠": 3688,
      "荡": 3689,
      "荣": 3690,
      "荤": 3691,
      "荦": 3692,
      "荫": 3693,
      "药": 3694,
      "荷": 3695,
      "荼": 3696,
      "荽": 3697,
      "莅": 3698,
      "莉": 3699,
      "莎": 3700,
      "莓": 3701,
      "莞": 3702,
      "莠": 3703,
      "莫": 3704,
      "莱": 3705,
      "莲": 3706,
      "莳": 3707,
      "获": 3708,
      "莹": 3709,
      "莺": 3710,
      "莽": 3711,
      "菁": 3712,
      "菇": 3713,
      "菊": 3714,
      "菌": 3715,
      "菏": 3716,
      "菜": 3717,
      "菠": 3718,
      "菡": 3719,
      "菩": 3720,
      "華": 3721,
      "菱": 3722,
      "菲": 3723,
      "菽": 3724,
      "萃": 3725,
      "萄": 3726,
      "萆": 3727,
      "萌": 3728,
      "萍": 3729,
      "萎": 3730,
      "萏": 3731,
      "萝": 3732,
      "萤": 3733,
      "营": 3734,
      "萦": 3735,
      "萧": 3736,
      "萨": 3737,
      "萼": 3738,
      "落": 3739,
      "葆": 3740,
      "著": 3741,
      "葛": 3742,
      "葡": 3743,
      "董": 3744,
      "葫": 3745,
      "葬": 3746,
      "葭": 3747,
      "葱": 3748,
      "葵": 3749,
      "葸": 3750,
      "蒂": 3751,
      "蒋": 3752,
      "蒗": 3753,
      "蒙": 3754,
      "蒜": 3755,
      "蒲": 3756,
      "蒸": 3757,
      "蒹": 3758,
      "蓄": 3759,
      "蓉": 3760,
      "蓑": 3761,
      "蓓": 3762,
      "蓝": 3763,
      "蓟": 3764,
      "蓦": 3765,
      "蓧": 3766,
      "蓬": 3767,
      "蓰": 3768,
      "蔑": 3769,
      "蔓": 3770,
      "蔚": 3771,
      "蔡": 3772,
      "蔬": 3773,
      "蔼": 3774,
      "蔽": 3775,
      "蕃": 3776,
      "蕊": 3777,
      "蕖": 3778,
      "蕤": 3779,
      "蕲": 3780,
      "蕴": 3781,
      "蕻": 3782,
      "蕾": 3783,
      "薄": 3784,
      "薛": 3785,
      "薨": 3786,
      "薪": 3787,
      "薮": 3788,
      "薯": 3789,
      "薰": 3790,
      "藉": 3791,
      "藏": 3792,
      "藐": 3793,
      "藓": 3794,
      "藕": 3795,
      "藤": 3796,
      "藩": 3797,
      "蘑": 3798,
      "蘸": 3799,
      "虎": 3800,
      "虏": 3801,
      "虐": 3802,
      "虑": 3803,
      "虔": 3804,
      "虚": 3805,
      "虞": 3806,
      "虫": 3807,
      "虬": 3808,
      "虱": 3809,
      "虹": 3810,
      "虽": 3811,
      "虾": 3812,
      "蚀": 3813,
      "蚁": 3814,
      "蚂": 3815,
      "蚊": 3816,
      "蚋": 3817,
      "蚌": 3818,
      "蚓": 3819,
      "蚕": 3820,
      "蚣": 3821,
      "蚤": 3822,
      "蚪": 3823,
      "蚯": 3824,
      "蚱": 3825,
      "蛆": 3826,
      "蛇": 3827,
      "蛊": 3828,
      "蛋": 3829,
      "蛔": 3830,
      "蛙": 3831,
      "蛛": 3832,
      "蛟": 3833,
      "蛤": 3834,
      "蛭": 3835,
      "蛮": 3836,
      "蛰": 3837,
      "蛾": 3838,
      "蜀": 3839,
      "蜂": 3840,
      "蜃": 3841,
      "蜇": 3842,
      "蜈": 3843,
      "蜍": 3844,
      "蜒": 3845,
      "蜓": 3846,
      "蜗": 3847,
      "蜘": 3848,
      "蜚": 3849,
      "蜜": 3850,
      "蜡": 3851,
      "蜢": 3852,
      "蜥": 3853,
      "蜩": 3854,
      "蜮": 3855,
      "蜴": 3856,
      "蜷": 3857,
      "蜻": 3858,
      "蜾": 3859,
      "蜿": 3860,
      "蝇": 3861,
      "蝉": 3862,
      "蝌": 3863,
      "蝎": 3864,
      "蝗": 3865,
      "蝙": 3866,
      "蝠": 3867,
      "蝮": 3868,
      "蝴": 3869,
      "蝶": 3870,
      "蝼": 3871,
      "螂": 3872,
      "螃": 3873,
      "融": 3874,
      "螓": 3875,
      "螟": 3876,
      "螫": 3877,
      "螯": 3878,
      "螳": 3879,
      "螺": 3880,
      "蟀": 3881,
      "蟆": 3882,
      "蟋": 3883,
      "蟒": 3884,
      "蟠": 3885,
      "蟹": 3886,
      "蟾": 3887,
      "蠕": 3888,
      "蠖": 3889,
      "蠡": 3890,
      "蠢": 3891,
      "血": 3892,
      "衅": 3893,
      "行": 3894,
      "衍": 3895,
      "衔": 3896,
      "街": 3897,
      "衙": 3898,
      "衡": 3899,
      "衢": 3900,
      "衣": 3901,
      "补": 3902,
      "表": 3903,
      "衫": 3904,
      "衬": 3905,
      "衮": 3906,
      "衰": 3907,
      "衲": 3908,
      "衷": 3909,
      "衽": 3910,
      "衾": 3911,
      "袁": 3912,
      "袂": 3913,
      "袄": 3914,
      "袅": 3915,
      "袈": 3916,
      "袋": 3917,
      "袍": 3918,
      "袒": 3919,
      "袖": 3920,
      "袜": 3921,
      "被": 3922,
      "袭": 3923,
      "袱": 3924,
      "袼": 3925,
      "裁": 3926,
      "裂": 3927,
      "装": 3928,
      "裆": 3929,
      "裉": 3930,
      "裏": 3931,
      "裔": 3932,
      "裕": 3933,
      "裘": 3934,
      "裙": 3935,
      "裟": 3936,
      "裣": 3937,
      "裤": 3938,
      "裨": 3939,
      "裰": 3940,
      "裳": 3941,
      "裴": 3942,
      "裸": 3943,
      "裹": 3944,
      "裾": 3945,
      "褊": 3946,
      "褐": 3947,
      "褒": 3948,
      "褚": 3949,
      "褛": 3950,
      "褡": 3951,
      "褥": 3952,
      "褪": 3953,
      "褴": 3954,
      "褶": 3955,
      "襄": 3956,
      "襟": 3957,
      "襤": 3958,
      "西": 3959,
      "要": 3960,
      "覆": 3961,
      "見": 3962,
      "覦": 3963,
      "见": 3964,
      "观": 3965,
      "规": 3966,
      "觅": 3967,
      "视": 3968,
      "览": 3969,
      "觉": 3970,
      "觊": 3971,
      "觌": 3972,
      "觎": 3973,
      "觑": 3974,
      "角": 3975,
      "觞": 3976,
      "解": 3977,
      "触": 3978,
      "言": 3979,
      "詈": 3980,
      "詹": 3981,
      "誉": 3982,
      "誓": 3983,
      "警": 3984,
      "譬": 3985,
      "计": 3986,
      "订": 3987,
      "讣": 3988,
      "认": 3989,
      "讥": 3990,
      "讧": 3991,
      "讨": 3992,
      "让": 3993,
      "讪": 3994,
      "训": 3995,
      "议": 3996,
      "讯": 3997,
      "记": 3998,
      "讲": 3999,
      "讳": 4000,
      "讴": 4001,
      "讶": 4002,
      "讷": 4003,
      "许": 4004,
      "讹": 4005,
      "论": 4006,
      "讼": 4007,
      "讽": 4008,
      "设": 4009,
      "访": 4010,
      "诀": 4011,
      "证": 4012,
      "诂": 4013,
      "诃": 4014,
      "评": 4015,
      "诅": 4016,
      "识": 4017,
      "诈": 4018,
      "诉": 4019,
      "诊": 4020,
      "诋": 4021,
      "诌": 4022,
      "词": 4023,
      "诏": 4024,
      "译": 4025,
      "诓": 4026,
      "试": 4027,
      "诗": 4028,
      "诘": 4029,
      "诙": 4030,
      "诚": 4031,
      "诛": 4032,
      "话": 4033,
      "诞": 4034,
      "诡": 4035,
      "询": 4036,
      "诣": 4037,
      "诤": 4038,
      "该": 4039,
      "详": 4040,
      "诧": 4041,
      "诨": 4042,
      "诫": 4043,
      "诬": 4044,
      "语": 4045,
      "误": 4046,
      "诰": 4047,
      "诱": 4048,
      "诲": 4049,
      "诳": 4050,
      "说": 4051,
      "诵": 4052,
      "请": 4053,
      "诸": 4054,
      "诺": 4055,
      "读": 4056,
      "诽": 4057,
      "课": 4058,
      "诿": 4059,
      "谀": 4060,
      "谁": 4061,
      "调": 4062,
      "谄": 4063,
      "谅": 4064,
      "谆": 4065,
      "谈": 4066,
      "谊": 4067,
      "谋": 4068,
      "谍": 4069,
      "谎": 4070,
      "谏": 4071,
      "谐": 4072,
      "谑": 4073,
      "谒": 4074,
      "谓": 4075,
      "谕": 4076,
      "谖": 4077,
      "谗": 4078,
      "谙": 4079,
      "谛": 4080,
      "谜": 4081,
      "谢": 4082,
      "谣": 4083,
      "谤": 4084,
      "谥": 4085,
      "谦": 4086,
      "谨": 4087,
      "谩": 4088,
      "谪": 4089,
      "谬": 4090,
      "谭": 4091,
      "谱": 4092,
      "谲": 4093,
      "谴": 4094,
      "谶": 4095,
      "谷": 4096,
      "谿": 4097,
      "豁": 4098,
      "豆": 4099,
      "象": 4100,
      "豪": 4101,
      "豫": 4102,
      "豸": 4103,
      "豹": 4104,
      "豺": 4105,
      "貂": 4106,
      "貉": 4107,
      "貌": 4108,
      "貧": 4109,
      "贈": 4110,
      "贝": 4111,
      "贞": 4112,
      "负": 4113,
      "贡": 4114,
      "财": 4115,
      "责": 4116,
      "贤": 4117,
      "败": 4118,
      "账": 4119,
      "货": 4120,
      "质": 4121,
      "贩": 4122,
      "贪": 4123,
      "贫": 4124,
      "贬": 4125,
      "购": 4126,
      "贮": 4127,
      "贯": 4128,
      "贰": 4129,
      "贱": 4130,
      "贲": 4131,
      "贴": 4132,
      "贵": 4133,
      "贷": 4134,
      "贸": 4135,
      "费": 4136,
      "贺": 4137,
      "贻": 4138,
      "贼": 4139,
      "贽": 4140,
      "贾": 4141,
      "贿": 4142,
      "赂": 4143,
      "赃": 4144,
      "资": 4145,
      "赈": 4146,
      "赊": 4147,
      "赋": 4148,
      "赌": 4149,
      "赍": 4150,
      "赎": 4151,
      "赏": 4152,
      "赐": 4153,
      "赔": 4154,
      "赖": 4155,
      "赘": 4156,
      "赚": 4157,
      "赛": 4158,
      "赝": 4159,
      "赞": 4160,
      "赠": 4161,
      "赢": 4162,
      "赣": 4163,
      "赤": 4164,
      "赦": 4165,
      "赫": 4166,
      "赭": 4167,
      "走": 4168,
      "赳": 4169,
      "赴": 4170,
      "赵": 4171,
      "赶": 4172,
      "起": 4173,
      "趁": 4174,
      "趄": 4175,
      "超": 4176,
      "越": 4177,
      "趋": 4178,
      "趑": 4179,
      "趟": 4180,
      "趣": 4181,
      "趱": 4182,
      "足": 4183,
      "趴": 4184,
      "趵": 4185,
      "趾": 4186,
      "跃": 4187,
      "跄": 4188,
      "跋": 4189,
      "跌": 4190,
      "跑": 4191,
      "跖": 4192,
      "跚": 4193,
      "跛": 4194,
      "距": 4195,
      "跟": 4196,
      "跤": 4197,
      "跨": 4198,
      "跪": 4199,
      "路": 4200,
      "跳": 4201,
      "践": 4202,
      "跶": 4203,
      "跷": 4204,
      "跸": 4205,
      "跹": 4206,
      "跺": 4207,
      "跻": 4208,
      "踉": 4209,
      "踊": 4210,
      "踌": 4211,
      "踏": 4212,
      "踐": 4213,
      "踝": 4214,
      "踞": 4215,
      "踟": 4216,
      "踢": 4217,
      "踩": 4218,
      "踪": 4219,
      "踬": 4220,
      "踱": 4221,
      "踵": 4222,
      "踹": 4223,
      "踽": 4224,
      "蹁": 4225,
      "蹄": 4226,
      "蹇": 4227,
      "蹈": 4228,
      "蹊": 4229,
      "蹋": 4230,
      "蹑": 4231,
      "蹒": 4232,
      "蹙": 4233,
      "蹚": 4234,
      "蹦": 4235,
      "蹬": 4236,
      "蹰": 4237,
      "蹲": 4238,
      "蹴": 4239,
      "蹶": 4240,
      "蹻": 4241,
      "蹿": 4242,
      "躁": 4243,
      "躇": 4244,
      "身": 4245,
      "躬": 4246,
      "躯": 4247,
      "躲": 4248,
      "躺": 4249,
      "车": 4250,
      "轧": 4251,
      "轨": 4252,
      "轩": 4253,
      "转": 4254,
      "轮": 4255,
      "软": 4256,
      "轰": 4257,
      "轲": 4258,
      "轳": 4259,
      "轴": 4260,
      "轶": 4261,
      "轻": 4262,
      "轼": 4263,
      "载": 4264,
      "轾": 4265,
      "轿": 4266,
      "较": 4267,
      "辄": 4268,
      "辅": 4269,
      "辆": 4270,
      "辇": 4271,
      "辈": 4272,
      "辉": 4273,
      "辍": 4274,
      "辎": 4275,
      "辑": 4276,
      "输": 4277,
      "辔": 4278,
      "辕": 4279,
      "辖": 4280,
      "辗": 4281,
      "辘": 4282,
      "辙": 4283,
      "辚": 4284,
      "辛": 4285,
      "辜": 4286,
      "辞": 4287,
      "辟": 4288,
      "辣": 4289,
      "辦": 4290,
      "辨": 4291,
      "辩": 4292,
      "辫": 4293,
      "辰": 4294,
      "辱": 4295,
      "边": 4296,
      "辽": 4297,
      "达": 4298,
      "迁": 4299,
      "迂": 4300,
      "迄": 4301,
      "迅": 4302,
      "过": 4303,
      "迈": 4304,
      "迎": 4305,
      "运": 4306,
      "近": 4307,
      "迓": 4308,
      "返": 4309,
      "迗": 4310,
      "还": 4311,
      "这": 4312,
      "进": 4313,
      "远": 4314,
      "违": 4315,
      "连": 4316,
      "迟": 4317,
      "迢": 4318,
      "迤": 4319,
      "迥": 4320,
      "迦": 4321,
      "迨": 4322,
      "迩": 4323,
      "迪": 4324,
      "迫": 4325,
      "迭": 4326,
      "述": 4327,
      "迳": 4328,
      "迷": 4329,
      "迸": 4330,
      "迹": 4331,
      "追": 4332,
      "退": 4333,
      "送": 4334,
      "适": 4335,
      "逃": 4336,
      "逅": 4337,
      "逆": 4338,
      "选": 4339,
      "逊": 4340,
      "逍": 4341,
      "透": 4342,
      "逐": 4343,
      "递": 4344,
      "途": 4345,
      "逖": 4346,
      "逗": 4347,
      "通": 4348,
      "逛": 4349,
      "逝": 4350,
      "逞": 4351,
      "速": 4352,
      "造": 4353,
      "逢": 4354,
      "逦": 4355,
      "逭": 4356,
      "逮": 4357,
      "進": 4358,
      "逵": 4359,
      "逸": 4360,
      "逻": 4361,
      "逼": 4362,
      "逾": 4363,
      "遁": 4364,
      "遂": 4365,
      "遄": 4366,
      "遇": 4367,
      "遍": 4368,
      "遏": 4369,
      "遐": 4370,
      "遑": 4371,
      "遒": 4372,
      "道": 4373,
      "遗": 4374,
      "遢": 4375,
      "遣": 4376,
      "遥": 4377,
      "遨": 4378,
      "遭": 4379,
      "遮": 4380,
      "遵": 4381,
      "遽": 4382,
      "避": 4383,
      "邀": 4384,
      "邂": 4385,
      "邃": 4386,
      "邈": 4387,
      "邋": 4388,
      "邑": 4389,
      "邓": 4390,
      "邕": 4391,
      "邙": 4392,
      "那": 4393,
      "邦": 4394,
      "邪": 4395,
      "邯": 4396,
      "邱": 4397,
      "邵": 4398,
      "邻": 4399,
      "郁": 4400,
      "郄": 4401,
      "郅": 4402,
      "郊": 4403,
      "郎": 4404,
      "郑": 4405,
      "郝": 4406,
      "郞": 4407,
      "郡": 4408,
      "郢": 4409,
      "郧": 4410,
      "部": 4411,
      "郭": 4412,
      "郸": 4413,
      "都": 4414,
      "郾": 4415,
      "鄂": 4416,
      "鄙": 4417,
      "鄜": 4418,
      "鄱": 4419,
      "酉": 4420,
      "酊": 4421,
      "酋": 4422,
      "酌": 4423,
      "配": 4424,
      "酒": 4425,
      "酡": 4426,
      "酣": 4427,
      "酤": 4428,
      "酥": 4429,
      "酩": 4430,
      "酪": 4431,
      "酬": 4432,
      "酱": 4433,
      "酲": 4434,
      "酷": 4435,
      "酸": 4436,
      "酿": 4437,
      "醇": 4438,
      "醉": 4439,
      "醋": 4440,
      "醍": 4441,
      "醐": 4442,
      "醒": 4443,
      "醮": 4444,
      "醺": 4445,
      "采": 4446,
      "释": 4447,
      "釋": 4448,
      "里": 4449,
      "重": 4450,
      "野": 4451,
      "量": 4452,
      "金": 4453,
      "釜": 4454,
      "鉴": 4455,
      "銀": 4456,
      "銮": 4457,
      "錄": 4458,
      "錯": 4459,
      "鏖": 4460,
      "针": 4461,
      "钉": 4462,
      "钌": 4463,
      "钏": 4464,
      "钓": 4465,
      "钗": 4466,
      "钝": 4467,
      "钞": 4468,
      "钟": 4469,
      "钢": 4470,
      "钤": 4471,
      "钥": 4472,
      "钦": 4473,
      "钧": 4474,
      "钩": 4475,
      "钮": 4476,
      "钱": 4477,
      "钳": 4478,
      "钵": 4479,
      "钹": 4480,
      "钻": 4481,
      "钽": 4482,
      "钾": 4483,
      "钿": 4484,
      "铁": 4485,
      "铃": 4486,
      "铄": 4487,
      "铅": 4488,
      "铋": 4489,
      "铐": 4490,
      "铓": 4491,
      "铙": 4492,
      "铛": 4493,
      "铜": 4494,
      "铠": 4495,
      "铡": 4496,
      "铢": 4497,
      "铣": 4498,
      "铤": 4499,
      "铩": 4500,
      "铭": 4501,
      "铮": 4502,
      "铰": 4503,
      "铲": 4504,
      "铳": 4505,
      "银": 4506,
      "铸": 4507,
      "铺": 4508,
      "链": 4509,
      "铿": 4510,
      "销": 4511,
      "锁": 4512,
      "锄": 4513,
      "锅": 4514,
      "锈": 4515,
      "锉": 4516,
      "锊": 4517,
      "锋": 4518,
      "锏": 4519,
      "锐": 4520,
      "锒": 4521,
      "锗": 4522,
      "错": 4523,
      "锚": 4524,
      "锡": 4525,
      "锣": 4526,
      "锤": 4527,
      "锥": 4528,
      "锦": 4529,
      "锭": 4530,
      "键": 4531,
      "锯": 4532,
      "锱": 4533,
      "锵": 4534,
      "锻": 4535,
      "镀": 4536,
      "镂": 4537,
      "镅": 4538,
      "镇": 4539,
      "镊": 4540,
      "镌": 4541,
      "镔": 4542,
      "镖": 4543,
      "镗": 4544,
      "镛": 4545,
      "镜": 4546,
      "镞": 4547,
      "镣": 4548,
      "镫": 4549,
      "镬": 4550,
      "镭": 4551,
      "镯": 4552,
      "镰": 4553,
      "镶": 4554,
      "长": 4555,
      "間": 4556,
      "门": 4557,
      "闩": 4558,
      "闪": 4559,
      "闭": 4560,
      "问": 4561,
      "闯": 4562,
      "闰": 4563,
      "闲": 4564,
      "闳": 4565,
      "间": 4566,
      "闵": 4567,
      "闷": 4568,
      "闸": 4569,
      "闹": 4570,
      "闺": 4571,
      "闻": 4572,
      "闼": 4573,
      "闽": 4574,
      "闾": 4575,
      "阀": 4576,
      "阁": 4577,
      "阂": 4578,
      "阅": 4579,
      "阉": 4580,
      "阋": 4581,
      "阍": 4582,
      "阎": 4583,
      "阏": 4584,
      "阐": 4585,
      "阑": 4586,
      "阒": 4587,
      "阔": 4588,
      "阕": 4589,
      "阖": 4590,
      "阗": 4591,
      "阙": 4592,
      "阛": 4593,
      "阜": 4594,
      "队": 4595,
      "阪": 4596,
      "阮": 4597,
      "阱": 4598,
      "防": 4599,
      "阳": 4600,
      "阴": 4601,
      "阵": 4602,
      "阶": 4603,
      "阻": 4604,
      "阿": 4605,
      "陀": 4606,
      "陂": 4607,
      "附": 4608,
      "际": 4609,
      "陆": 4610,
      "陇": 4611,
      "陈": 4612,
      "陋": 4613,
      "陌": 4614,
      "降": 4615,
      "限": 4616,
      "陕": 4617,
      "陛": 4618,
      "陡": 4619,
      "院": 4620,
      "除": 4621,
      "险": 4622,
      "陪": 4623,
      "陲": 4624,
      "陵": 4625,
      "陶": 4626,
      "陷": 4627,
      "隅": 4628,
      "隆": 4629,
      "隋": 4630,
      "隍": 4631,
      "随": 4632,
      "隐": 4633,
      "隔": 4634,
      "隗": 4635,
      "隘": 4636,
      "隙": 4637,
      "障": 4638,
      "隧": 4639,
      "隶": 4640,
      "隼": 4641,
      "隽": 4642,
      "难": 4643,
      "雀": 4644,
      "雁": 4645,
      "雄": 4646,
      "雅": 4647,
      "集": 4648,
      "雇": 4649,
      "雉": 4650,
      "雌": 4651,
      "雍": 4652,
      "雏": 4653,
      "雕": 4654,
      "雜": 4655,
      "雨": 4656,
      "雪": 4657,
      "雰": 4658,
      "雳": 4659,
      "零": 4660,
      "雷": 4661,
      "雹": 4662,
      "雾": 4663,
      "需": 4664,
      "霁": 4665,
      "霄": 4666,
      "霆": 4667,
      "震": 4668,
      "霉": 4669,
      "霍": 4670,
      "霎": 4671,
      "霓": 4672,
      "霖": 4673,
      "霜": 4674,
      "霞": 4675,
      "霭": 4676,
      "露": 4677,
      "霸": 4678,
      "霹": 4679,
      "青": 4680,
      "靓": 4681,
      "靖": 4682,
      "静": 4683,
      "靛": 4684,
      "非": 4685,
      "靠": 4686,
      "靡": 4687,
      "面": 4688,
      "靥": 4689,
      "革": 4690,
      "靴": 4691,
      "靶": 4692,
      "鞋": 4693,
      "鞍": 4694,
      "鞑": 4695,
      "鞘": 4696,
      "鞠": 4697,
      "鞭": 4698,
      "韦": 4699,
      "韧": 4700,
      "韩": 4701,
      "韬": 4702,
      "音": 4703,
      "韵": 4704,
      "韶": 4705,
      "頦": 4706,
      "頰": 4707,
      "類": 4708,
      "页": 4709,
      "顶": 4710,
      "顷": 4711,
      "顸": 4712,
      "项": 4713,
      "顺": 4714,
      "须": 4715,
      "顽": 4716,
      "顾": 4717,
      "顿": 4718,
      "颁": 4719,
      "颂": 4720,
      "预": 4721,
      "颅": 4722,
      "领": 4723,
      "颇": 4724,
      "颈": 4725,
      "颊": 4726,
      "颍": 4727,
      "颏": 4728,
      "颐": 4729,
      "频": 4730,
      "颓": 4731,
      "颔": 4732,
      "颖": 4733,
      "颗": 4734,
      "题": 4735,
      "颚": 4736,
      "颛": 4737,
      "颜": 4738,
      "额": 4739,
      "颟": 4740,
      "颠": 4741,
      "颡": 4742,
      "颤": 4743,
      "颦": 4744,
      "颧": 4745,
      "风": 4746,
      "飏": 4747,
      "飒": 4748,
      "飓": 4749,
      "飕": 4750,
      "飘": 4751,
      "飙": 4752,
      "飚": 4753,
      "飞": 4754,
      "食": 4755,
      "飨": 4756,
      "餍": 4757,
      "餐": 4758,
      "餘": 4759,
      "餺": 4760,
      "饕": 4761,
      "饥": 4762,
      "饨": 4763,
      "饪": 4764,
      "饬": 4765,
      "饭": 4766,
      "饮": 4767,
      "饯": 4768,
      "饰": 4769,
      "饱": 4770,
      "饲": 4771,
      "饴": 4772,
      "饵": 4773,
      "饶": 4774,
      "饷": 4775,
      "饺": 4776,
      "饼": 4777,
      "饿": 4778,
      "馀": 4779,
      "馁": 4780,
      "馄": 4781,
      "馅": 4782,
      "馆": 4783,
      "馈": 4784,
      "馋": 4785,
      "馏": 4786,
      "馒": 4787,
      "馔": 4788,
      "首": 4789,
      "馗": 4790,
      "香": 4791,
      "馥": 4792,
      "馨": 4793,
      "駿": 4794,
      "騎": 4795,
      "驊": 4796,
      "驚": 4797,
      "马": 4798,
      "驭": 4799,
      "驮": 4800,
      "驯": 4801,
      "驰": 4802,
      "驱": 4803,
      "驳": 4804,
      "驴": 4805,
      "驶": 4806,
      "驷": 4807,
      "驸": 4808,
      "驹": 4809,
      "驻": 4810,
      "驼": 4811,
      "驽": 4812,
      "驾": 4813,
      "驿": 4814,
      "骀": 4815,
      "骁": 4816,
      "骂": 4817,
      "骄": 4818,
      "骅": 4819,
      "骆": 4820,
      "骇": 4821,
      "骈": 4822,
      "骊": 4823,
      "骋": 4824,
      "验": 4825,
      "骎": 4826,
      "骏": 4827,
      "骐": 4828,
      "骑": 4829,
      "骓": 4830,
      "骗": 4831,
      "骚": 4832,
      "骛": 4833,
      "骜": 4834,
      "骠": 4835,
      "骡": 4836,
      "骢": 4837,
      "骤": 4838,
      "骥": 4839,
      "骧": 4840,
      "骨": 4841,
      "骰": 4842,
      "骷": 4843,
      "骸": 4844,
      "骼": 4845,
      "髅": 4846,
      "髓": 4847,
      "高": 4848,
      "髭": 4849,
      "髯": 4850,
      "髻": 4851,
      "鬃": 4852,
      "鬓": 4853,
      "鬟": 4854,
      "鬣": 4855,
      "鬼": 4856,
      "魁": 4857,
      "魂": 4858,
      "魄": 4859,
      "魅": 4860,
      "魇": 4861,
      "魉": 4862,
      "魍": 4863,
      "魏": 4864,
      "魑": 4865,
      "魔": 4866,
      "魯": 4867,
      "鱼": 4868,
      "鲁": 4869,
      "鲍": 4870,
      "鲎": 4871,
      "鲛": 4872,
      "鲜": 4873,
      "鲞": 4874,
      "鲠": 4875,
      "鲤": 4876,
      "鲨": 4877,
      "鲮": 4878,
      "鲲": 4879,
      "鲸": 4880,
      "鳄": 4881,
      "鳅": 4882,
      "鳌": 4883,
      "鳍": 4884,
      "鳐": 4885,
      "鳔": 4886,
      "鳖": 4887,
      "鳝": 4888,
      "鳞": 4889,
      "鳩": 4890,
      "鸟": 4891,
      "鸠": 4892,
      "鸡": 4893,
      "鸢": 4894,
      "鸣": 4895,
      "鸥": 4896,
      "鸦": 4897,
      "鸨": 4898,
      "鸩": 4899,
      "鸭": 4900,
      "鸯": 4901,
      "鸳": 4902,
      "鸷": 4903,
      "鸽": 4904,
      "鸾": 4905,
      "鸿": 4906,
      "鹁": 4907,
      "鹂": 4908,
      "鹃": 4909,
      "鹄": 4910,
      "鹅": 4911,
      "鹉": 4912,
      "鹊": 4913,
      "鹏": 4914,
      "鹑": 4915,
      "鹗": 4916,
      "鹘": 4917,
      "鹜": 4918,
      "鹞": 4919,
      "鹤": 4920,
      "鹦": 4921,
      "鹫": 4922,
      "鹰": 4923,
      "鹵": 4924,
      "鹿": 4925,
      "麂": 4926,
      "麋": 4927,
      "麓": 4928,
      "麝": 4929,
      "麟": 4930,
      "麦": 4931,
      "麵": 4932,
      "麻": 4933,
      "麼": 4934,
      "麾": 4935,
      "黄": 4936,
      "黎": 4937,
      "黏": 4938,
      "黑": 4939,
      "黔": 4940,
      "默": 4941,
      "黛": 4942,
      "黜": 4943,
      "黝": 4944,
      "黠": 4945,
      "黨": 4946,
      "黯": 4947,
      "鼋": 4948,
      "鼎": 4949,
      "鼓": 4950,
      "鼠": 4951,
      "鼻": 4952,
      "鼾": 4953,
      "齊": 4954,
      "齐": 4955,
      "齡": 4956,
      "齿": 4957,
      "龂": 4958,
      "龄": 4959,
      "龊": 4960,
      "龌": 4961,
      "龐": 4962,
      "龙": 4963,
      "龚": 4964,
      "龛": 4965,
      "龟": 4966,
      "！": 4967,
      "（": 4968,
      "）": 4969,
      "＋": 4970,
      "，": 4971,
      "：": 4972,
      "；": 4973,
      "？": 4974,
      "什么": 4975,
      "令狐": 4976,
      "说道": 4977,
      "令狐冲": 4978,
      "无忌": 4979,
      "自己": 4980,
      "张无忌": 4981,
      "一个": 4982,
      "也不": 4983,
      "了一": 4984,
      "段誉": 4985,
      "不是": 4986,
      "武功": 4987,
      "笑道": 4988,
      "咱们": 4989,
      "一声": 4990,
      "师父": 4991,
      "弟子": 4992,
      "不知": 4993,
      "这一": 4994,
      "听得": 4995,
      "心中": 4996,
      "少林": 4997,
      "出来": 4998,
      "他们": 4999,
      "如何": 5000,
      "如此": 5001,
      "姑娘": 5002,
      "山派": 5003,
      "突然": 5004,
      "我们": 5005,
      "二人": 5006,
      "萧峰": 5007,
      "心想": 5008,
      "叫道": 5009,
      "破天": 5010,
      "石破天": 5011,
      "之中": 5012,
      "慕容": 5013,
      "兄弟": 5014,
      "声道": 5015,
      "便是": 5016,
      "不能": 5017,
      "夫人": 5018,
      "不过": 5019,
      "到了": 5020,
      "虚竹": 5021,
      "剑法": 5022,
      "大师": 5023,
      "的一声": 5024,
      "只见": 5025,
      "不得": 5026,
      "倘若": 5027,
      "不可": 5028,
      "你们": 5029,
      "教主": 5030,
      "众人": 5031,
      "两人": 5032,
      "长剑": 5033,
      "内力": 5034,
      "原来": 5035,
      "不敢": 5036,
      "知道": 5037,
      "帮主": 5038,
      "婆婆": 5039,
      "见到": 5040,
      "不住": 5041,
      "掌门": 5042,
      "这么": 5043,
      "脸上": 5044,
      "今日": 5045,
      "之间": 5046,
      "怎么": 5047,
      "都是": 5048,
      "身子": 5049,
      "身上": 5050,
      "先生": 5051,
      "赵敏": 5052,
      "之后": 5053,
      "这里": 5054,
      "有人": 5055,
      "这些": 5056,
      "天下": 5057,
      "乔峰": 5058,
      "跟着": 5059,
      "当真": 5060,
      "一人": 5061,
      "之下": 5062,
      "谢逊": 5063,
      "一笑": 5064,
      "可是": 5065,
      "说话": 5066,
      "声音": 5067,
      "不群": 5068,
      "岳不群": 5069,
      "公子": 5070,
      "起来": 5071,
      "问道": 5072,
      "武林": 5073,
      "翠山": 5074,
      "这时": 5075,
      "阿紫": 5076,
      "张翠山": 5077,
      "有什么": 5078,
      "那人": 5079,
      "爹爹": 5080,
      "心下": 5081,
      "这个": 5082,
      "的一": 5083,
      "长老": 5084,
      "了他": 5085,
      "只是": 5086,
      "阿朱": 5087,
      "登时": 5088,
      "盈盈": 5089,
      "正是": 5090,
      "人家": 5091,
      "师太": 5092,
      "性命": 5093,
      "还是": 5094,
      "伸手": 5095,
      "句话": 5096,
      "江湖": 5097,
      "见他": 5098,
      "左手": 5099,
      "不会": 5100,
      "和尚": 5101,
      "手中": 5102,
      "三人": 5103,
      "地道": 5104,
      "是我": 5105,
      "女子": 5106,
      "武当": 5107,
      "喝道": 5108,
      "这位": 5109,
      "自然": 5110,
      "功夫": 5111,
      "说着": 5112,
      "平之": 5113,
      "两个": 5114,
      "中的": 5115,
      "你的": 5116,
      "语嫣": 5117,
      "灵珊": 5118,
      "难道": 5119,
      "过去": 5120,
      "丐帮": 5121,
      "师兄": 5122,
      "是一": 5123,
      "林平之": 5124,
      "人的": 5125,
      "不到": 5126,
      "在下": 5127,
      "岳灵珊": 5128,
      "王语嫣": 5129,
      "令狐冲道": 5130,
      "芷若": 5131,
      "你说": 5132,
      "哈哈": 5133,
      "少林寺": 5134,
      "慕容复": 5135,
      "英雄": 5136,
      "大哥": 5137,
      "也没": 5138,
      "不由": 5139,
      "有一": 5140,
      "你这": 5141,
      "只怕": 5142,
      "出去": 5143,
      "右手": 5144,
      "他的": 5145,
      "住了": 5146,
      "派的": 5147,
      "一般": 5148,
      "双手": 5149,
      "了几": 5150,
      "明教": 5151,
      "我的": 5152,
      "也是": 5153,
      "上的": 5154,
      "杀了": 5155,
      "对方": 5156,
      "说不": 5157,
      "下来": 5158,
      "出手": 5159,
      "地下": 5160,
      "这等": 5161,
      "段正": 5162,
      "点头": 5163,
      "当即": 5164,
      "周芷若": 5165,
      "为什么": 5166,
      "十余": 5167,
      "那是": 5168,
      "听到": 5169,
      "在一": 5170,
      "死了": 5171,
      "过了": 5172,
      "之人": 5173,
      "之时": 5174,
      "哪里": 5175,
      "明白": 5176,
      "那少": 5177,
      "此刻": 5178,
      "师妹": 5179,
      "便即": 5180,
      "老者": 5181,
      "段正淳": 5182,
      "只听得": 5183,
      "想到": 5184,
      "在他": 5185,
      "前辈": 5186,
      "是个": 5187,
      "本来": 5188,
      "当下": 5189,
      "上一": 5190,
      "上了": 5191,
      "汉子": 5192,
      "眼见": 5193,
      "高手": 5194,
      "是谁": 5195,
      "小子": 5196,
      "这般": 5197,
      "口气": 5198,
      "婉清": 5199,
      "木婉清": 5200,
      "不同": 5201,
      "不由得": 5202,
      "十分": 5203,
      "厉害": 5204,
      "过来": 5205,
      "仪琳": 5206,
      "摇头": 5207,
      "师弟": 5208,
      "微微": 5209,
      "轻轻": 5210,
      "伯光": 5211,
      "将他": 5212,
      "田伯光": 5213,
      "之极": 5214,
      "夫妇": 5215,
      "的大": 5216,
      "第一": 5217,
      "兵刃": 5218,
      "身来": 5219,
      "似乎": 5220,
      "朋友": 5221,
      "一时": 5222,
      "胸口": 5223,
      "这才": 5224,
      "给他": 5225,
      "下去": 5226,
      "为了": 5227,
      "敌人": 5228,
      "不见": 5229,
      "许多": 5230,
      "大理": 5231,
      "两位": 5232,
      "来到": 5233,
      "了出来": 5234,
      "这几": 5235,
      "之事": 5236,
      "全身": 5237,
      "魔教": 5238,
      "张三": 5239,
      "我不": 5240,
      "穴道": 5241,
      "不错": 5242,
      "这样": 5243,
      "的是": 5244,
      "走到": 5245,
      "到底": 5246,
      "石清": 5247,
      "张无忌道": 5248,
      "不禁": 5249,
      "就算": 5250,
      "站起": 5251,
      "只觉": 5252,
      "适才": 5253,
      "立时": 5254,
      "你不": 5255,
      "忽听得": 5256,
      "华山派": 5257,
      "鸠摩": 5258,
      "却是": 5259,
      "童姥": 5260,
      "怎地": 5261,
      "说得": 5262,
      "鸠摩智": 5263,
      "虽然": 5264,
      "你是": 5265,
      "的人": 5266,
      "一惊": 5267,
      "同时": 5268,
      "当年": 5269,
      "心道": 5270,
      "就是": 5271,
      "更加": 5272,
      "果然": 5273,
      "之意": 5274,
      "出一": 5275,
      "素素": 5276,
      "大声": 5277,
      "旁人": 5278,
      "这是": 5279,
      "只听": 5280,
      "妈妈": 5281,
      "我一": 5282,
      "丁不": 5283,
      "向他": 5284,
      "大叫": 5285,
      "此时": 5286,
      "甚是": 5287,
      "恒山派": 5288,
      "忽然": 5289,
      "殷素素": 5290,
      "这人": 5291,
      "大家": 5292,
      "师叔": 5293,
      "不及": 5294,
      "动手": 5295,
      "便在": 5296,
      "之外": 5297,
      "儿子": 5298,
      "怒道": 5299,
      "否则": 5300,
      "各人": 5301,
      "给你": 5302,
      "之上": 5303,
      "想起": 5304,
      "只有": 5305,
      "杨逍": 5306,
      "我行": 5307,
      "却又": 5308,
      "慢慢": 5309,
      "片刻": 5310,
      "他一": 5311,
      "居然": 5312,
      "不肯": 5313,
      "四人": 5314,
      "后来": 5315,
      "大笑": 5316,
      "年纪": 5317,
      "不起": 5318,
      "五岳": 5319,
      "华山": 5320,
      "我是": 5321,
      "任我行": 5322,
      "契丹": 5323,
      "一招": 5324,
      "第二": 5325,
      "十年": 5326,
      "向问": 5327,
      "道人": 5328,
      "向问天": 5329,
      "人人": 5330,
      "说到": 5331,
      "一阵": 5332,
      "不好": 5333,
      "始终": 5334,
      "方丈": 5335,
      "了这": 5336,
      "半点": 5337,
      "那少女": 5338,
      "峨嵋": 5339,
      "给我": 5340,
      "南海": 5341,
      "又道": 5342,
      "此人": 5343,
      "游坦": 5344,
      "那么": 5345,
      "是不是": 5346,
      "那老": 5347,
      "少林派": 5348,
      "因此": 5349,
      "武林中": 5350,
      "游坦之": 5351,
      "低声道": 5352,
      "去了": 5353,
      "瞧瞧": 5354,
      "之声": 5355,
      "件事": 5356,
      "其实": 5357,
      "内功": 5358,
      "在这里": 5359,
      "早已": 5360,
      "上来": 5361,
      "大有": 5362,
      "没有": 5363,
      "此事": 5364,
      "义父": 5365,
      "的手": 5366,
      "神功": 5367,
      "了个": 5368,
      "冷禅": 5369,
      "左冷禅": 5370,
      "但见": 5371,
      "段誉道": 5372,
      "突然间": 5373,
      "听他": 5374,
      "群豪": 5375,
      "鳄神": 5376,
      "却也": 5377,
      "南海鳄神": 5378,
      "青城": 5379,
      "缓缓": 5380,
      "跟我": 5381,
      "他是": 5382,
      "的话": 5383,
      "在这": 5384,
      "在地下": 5385,
      "言语": 5386,
      "不成": 5387,
      "老人家": 5388,
      "脸色": 5389,
      "春秋": 5390,
      "一齐": 5391,
      "师哥": 5392,
      "你一": 5393,
      "三个": 5394,
      "不少": 5395,
      "钟灵": 5396,
      "江湖上": 5397,
      "张三丰": 5398,
      "丁春秋": 5399,
      "寻思": 5400,
      "之前": 5401,
      "多半": 5402,
      "神色": 5403,
      "转身": 5404,
      "了我": 5405,
      "了起来": 5406,
      "未必": 5407,
      "着一": 5408,
      "丁珰": 5409,
      "丈夫": 5410,
      "来的": 5411,
      "万剑": 5412,
      "忍不住": 5413,
      "眼前": 5414,
      "不动": 5415,
      "有的": 5416,
      "立即": 5417,
      "包不同": 5418,
      "上前": 5419,
      "只要": 5420,
      "不了": 5421,
      "真气": 5422,
      "难以": 5423,
      "丝毫": 5424,
      "大伙": 5425,
      "女儿": 5426,
      "灭绝": 5427,
      "有些": 5428,
      "群雄": 5429,
      "并不": 5430,
      "眼睛": 5431,
      "鲜血": 5432,
      "了口气": 5433,
      "大的": 5434,
      "白万剑": 5435,
      "随即": 5436,
      "其中": 5437,
      "微笑道": 5438,
      "终于": 5439,
      "只不过": 5440,
      "当时": 5441,
      "便要": 5442,
      "孩子": 5443,
      "那个": 5444,
      "仙道": 5445,
      "西夏": 5446,
      "说什么": 5447,
      "之处": 5448,
      "只得": 5449,
      "七八": 5450,
      "东方": 5451,
      "何况": 5452,
      "成了": 5453,
      "星宿": 5454,
      "自是": 5455,
      "不出": 5456,
      "只须": 5457,
      "抓住": 5458,
      "说了": 5459,
      "好了": 5460,
      "少年": 5461,
      "已然": 5462,
      "老大": 5463,
      "灭绝师太": 5464,
      "掌门人": 5465,
      "声响": 5466,
      "点了": 5467,
      "两名": 5468,
      "方证": 5469,
      "手指": 5470,
      "姊姊": 5471,
      "跟你": 5472,
      "大伙儿": 5473,
      "小师妹": 5474,
      "是你": 5475,
      "不用": 5476,
      "不料": 5477,
      "桃谷": 5478,
      "真的": 5479,
      "肩头": 5480,
      "躬身": 5481,
      "得很": 5482,
      "得罪": 5483,
      "清楚": 5484,
      "的声音": 5485,
      "是什么": 5486,
      "身前": 5487,
      "出了": 5488,
      "实在": 5489,
      "金花": 5490,
      "人物": 5491,
      "叫做": 5492,
      "中原": 5493,
      "口中": 5494,
      "大喜": 5495,
      "莲舟": 5496,
      "之际": 5497,
      "师娘": 5498,
      "武学": 5499,
      "孩儿": 5500,
      "师伯": 5501,
      "便道": 5502,
      "一名": 5503,
      "提起": 5504,
      "大声道": 5505,
      "头来": 5506,
      "满脸": 5507,
      "不免": 5508,
      "生死": 5509,
      "身后": 5510,
      "俞莲舟": 5511,
      "小昭": 5512,
      "脚步": 5513,
      "瞧着": 5514,
      "欢喜": 5515,
      "沧海": 5516,
      "不再": 5517,
      "余沧海": 5518,
      "放在": 5519,
      "叫我": 5520,
      "岳夫人": 5521,
      "和他": 5522,
      "的武功": 5523,
      "阿碧": 5524,
      "怎样": 5525,
      "叹了口气": 5526,
      "而出": 5527,
      "还有": 5528,
      "了一声": 5529,
      "不如": 5530,
      "十二": 5531,
      "奇怪": 5532,
      "几个": 5533,
      "父亲": 5534,
      "何必": 5535,
      "你要": 5536,
      "手下": 5537,
      "不愿": 5538,
      "延庆": 5539,
      "掌力": 5540,
      "爷爷": 5541,
      "的事": 5542,
      "跟他": 5543,
      "各位": 5544,
      "多谢": 5545,
      "的小": 5546,
      "雪山派": 5547,
      "一直": 5548,
      "受伤": 5549,
      "觉得": 5550,
      "大师哥": 5551,
      "很好": 5552,
      "无不": 5553,
      "见过": 5554,
      "手掌": 5555,
      "半晌": 5556,
      "名字": 5557,
      "回来": 5558,
      "显是": 5559,
      "了得": 5560,
      "啊哟": 5561,
      "站起身来": 5562,
      "开了": 5563,
      "有何": 5564,
      "模样": 5565,
      "齐声": 5566,
      "这么一": 5567,
      "好生": 5568,
      "须得": 5569,
      "杀人": 5570,
      "了一会": 5571,
      "心中一": 5572,
      "怎能": 5573,
      "当然": 5574,
      "下了": 5575,
      "光明": 5576,
      "定是": 5577,
      "指点": 5578,
      "干什么": 5579,
      "答允": 5580,
      "只道": 5581,
      "这小": 5582,
      "那女": 5583,
      "不相": 5584,
      "中了": 5585,
      "手臂": 5586,
      "见她": 5587,
      "不论": 5588,
      "我也": 5589,
      "父母": 5590,
      "一条": 5591,
      "一面": 5592,
      "保定": 5593,
      "冲虚": 5594,
      "暗暗": 5595,
      "不败": 5596,
      "金花婆婆": 5597,
      "远远": 5598,
      "保定帝": 5599,
      "分别": 5600,
      "剑谱": 5601,
      "烟客": 5602,
      "谢烟客": 5603,
      "体内": 5604,
      "数十": 5605,
      "走了": 5606,
      "哈哈大笑": 5607,
      "的好": 5608,
      "一会": 5609,
      "了你": 5610,
      "以为": 5611,
      "多少": 5612,
      "大事": 5613,
      "晚辈": 5614,
      "看来": 5615,
      "东西": 5616,
      "确是": 5617,
      "镖局": 5618,
      "自己的": 5619,
      "微微一笑": 5620,
      "那姓": 5621,
      "显然": 5622,
      "男子": 5623,
      "说不定": 5624,
      "古怪": 5625,
      "丁不四": 5626,
      "不必": 5627,
      "便如": 5628,
      "年来": 5629,
      "怀中": 5630,
      "摇头道": 5631,
      "我这": 5632,
      "衣衫": 5633,
      "辟邪": 5634,
      "不多": 5635,
      "又想": 5636,
      "向来": 5637,
      "容易": 5638,
      "昆仑": 5639,
      "暗中": 5640,
      "闵柔": 5641,
      "阿绣": 5642,
      "屠龙": 5643,
      "我便": 5644,
      "重伤": 5645,
      "也好": 5646,
      "二十": 5647,
      "冷笑道": 5648,
      "又是": 5649,
      "满了": 5650,
      "门下": 5651,
      "嘿嘿": 5652,
      "再说": 5653,
      "哪知": 5654,
      "见了": 5655,
      "身旁": 5656,
      "那日": 5657,
      "这一招": 5658,
      "一怔": 5659,
      "一步": 5660,
      "其时": 5661,
      "尼姑": 5662,
      "料想": 5663,
      "马夫人": 5664,
      "兀自": 5665,
      "哥哥": 5666,
      "武当派": 5667,
      "大侠": 5668,
      "无法": 5669,
      "桃谷六": 5670,
      "于是": 5671,
      "东方不败": 5672,
      "僧人": 5673,
      "可惜": 5674,
      "是以": 5675,
      "这小子": 5676,
      "三十": 5677,
      "何以": 5678,
      "功力": 5679,
      "恒山": 5680,
      "日后": 5681,
      "转过": 5682,
      "也不知": 5683,
      "进来": 5684,
      "我要": 5685,
      "四个": 5686,
      "得多": 5687,
      "转头": 5688,
      "除了": 5689,
      "冷冷": 5690,
      "那时": 5691,
      "再也": 5692,
      "给人": 5693,
      "了一眼": 5694,
      "不在": 5695,
      "倒也": 5696,
      "着他": 5697,
      "我可": 5698,
      "在地": 5699,
      "头上": 5700,
      "身边": 5701,
      "剑招": 5702,
      "嵩山派": 5703,
      "而去": 5704,
      "霎时": 5705,
      "黑白": 5706,
      "众位": 5707,
      "招数": 5708,
      "桃谷六仙": 5709,
      "入了": 5710,
      "小姐": 5711,
      "并非": 5712,
      "不要": 5713,
      "报仇": 5714,
      "梨亭": 5715,
      "石壁": 5716,
      "站在": 5717,
      "高僧": 5718,
      "也不敢": 5719,
      "决计": 5720,
      "听了": 5721,
      "背上": 5722,
      "一位": 5723,
      "并无": 5724,
      "总是": 5725,
      "段延庆": 5726,
      "殷梨亭": 5727,
      "渐渐": 5728,
      "一片": 5729,
      "世上": 5730,
      "却不": 5731,
      "感激": 5732,
      "答应": 5733,
      "隐隐": 5734,
      "回去": 5735,
      "就此": 5736,
      "手腕": 5737,
      "是否": 5738,
      "没法": 5739,
      "胡说": 5740,
      "下山": 5741,
      "这两": 5742,
      "从来": 5743,
      "那些": 5744,
      "下的": 5745,
      "庄主": 5746,
      "心头": 5747,
      "一路": 5748,
      "回头": 5749,
      "所在": 5750,
      "那也": 5751,
      "那就": 5752,
      "镖头": 5753,
      "不对": 5754,
      "前来": 5755,
      "当日": 5756,
      "得到": 5757,
      "我和": 5758,
      "上去": 5759,
      "又有": 5760,
      "岛主": 5761,
      "嵩山": 5762,
      "青书": 5763,
      "令狐师兄": 5764,
      "决不": 5765,
      "史婆婆": 5766,
      "在她": 5767,
      "时辰": 5768,
      "吩咐": 5769,
      "在我": 5770,
      "我说": 5771,
      "那婆婆": 5772,
      "佩服": 5773,
      "我师父": 5774,
      "说来": 5775,
      "本派": 5776,
      "纷纷": 5777,
      "在一起": 5778,
      "小心": 5779,
      "五岳剑": 5780,
      "终究": 5781,
      "乌老大": 5782,
      "周颠": 5783,
      "目光": 5784,
      "一剑": 5785,
      "一动": 5786,
      "良久": 5787,
      "错了": 5788,
      "万万": 5789,
      "了两": 5790,
      "听说": 5791,
      "一个人": 5792,
      "了下来": 5793,
      "武士": 5794,
      "段公子": 5795,
      "这件事": 5796,
      "这几句话": 5797,
      "其余": 5798,
      "尽数": 5799,
      "皇帝": 5800,
      "点头道": 5801,
      "小说": 5802,
      "岱岩": 5803,
      "胡青": 5804,
      "便将": 5805,
      "叫你": 5806,
      "可以": 5807,
      "来越": 5808,
      "不知道": 5809,
      "中人": 5810,
      "他说": 5811,
      "喜欢": 5812,
      "小人": 5813,
      "生怕": 5814,
      "请你": 5815,
      "郭襄": 5816,
      "点了点头": 5817,
      "为人": 5818,
      "对付": 5819,
      "本门": 5820,
      "越来越": 5821,
      "大汉": 5822,
      "头顶": 5823,
      "她的": 5824,
      "沉吟": 5825,
      "也不能": 5826,
      "胡青牛": 5827,
      "一掌": 5828,
      "八道": 5829,
      "定逸": 5830,
      "范遥": 5831,
      "刘正": 5832,
      "宋青书": 5833,
      "刘正风": 5834,
      "个个": 5835,
      "是他": 5836,
      "三位": 5837,
      "好汉": 5838,
      "子的": 5839,
      "师姊": 5840,
      "俞岱岩": 5841,
      "向前": 5842,
      "坐在": 5843,
      "忙道": 5844,
      "神情": 5845,
      "面前": 5846,
      "石破天道": 5847,
      "青城派": 5848,
      "只好": 5849,
      "小僧": 5850,
      "是啊": 5851,
      "来了": 5852,
      "真是": 5853,
      "全无": 5854,
      "千秋": 5855,
      "受了": 5856,
      "我去": 5857,
      "露出": 5858,
      "这些人": 5859,
      "不去": 5860,
      "剑尖": 5861,
      "向后": 5862,
      "无比": 5863,
      "王夫人": 5864,
      "第三": 5865,
      "十八": 5866,
      "吃了一": 5867,
      "得紧": 5868,
      "有个": 5869,
      "而已": 5870,
      "说不出": 5871,
      "反而": 5872,
      "得他": 5873,
      "暗器": 5874,
      "无人": 5875,
      "峨嵋派": 5876,
      "胡说八道": 5877,
      "主人": 5878,
      "了过去": 5879,
      "双目": 5880,
      "得了": 5881,
      "笔翁": 5882,
      "背后": 5883,
      "双掌": 5884,
      "将我": 5885,
      "才是": 5886,
      "解药": 5887,
      "从此": 5888,
      "先前": 5889,
      "到得": 5890,
      "海石": 5891,
      "重重": 5892,
      "左右": 5893,
      "主意": 5894,
      "恶人": 5895,
      "相救": 5896,
      "眼光": 5897,
      "那小": 5898,
      "韦一笑": 5899,
      "突然之间": 5900,
      "但他": 5901,
      "号令": 5902,
      "法子": 5903,
      "贝海石": 5904,
      "走出": 5905,
      "一只": 5906,
      "天鹰": 5907,
      "进去": 5908,
      "阁下": 5909,
      "那少年": 5910,
      "在此": 5911,
      "太冲": 5912,
      "妹子": 5913,
      "腰间": 5914,
      "身形": 5915,
      "也已": 5916,
      "何太冲": 5917,
      "对我": 5918,
      "说到这里": 5919,
      "要是": 5920,
      "为难": 5921,
      "吓得": 5922,
      "寻常": 5923,
      "小小": 5924,
      "冷冷地道": 5925,
      "叫他": 5926,
      "吃了一惊": 5927,
      "一股": 5928,
      "万里": 5929,
      "了出去": 5930,
      "大吃": 5931,
      "是好": 5932,
      "轻功": 5933,
      "虚竹道": 5934,
      "便有": 5935,
      "少女": 5936,
      "属下": 5937,
      "最后": 5938,
      "现下": 5939,
      "老爷": 5940,
      "云中": 5941,
      "将军": 5942,
      "我爹爹": 5943,
      "林震": 5944,
      "知他": 5945,
      "屠龙刀": 5946,
      "林震南": 5947,
      "好好": 5948,
      "成昆": 5949,
      "数百": 5950,
      "圣火": 5951,
      "要杀": 5952,
      "一见": 5953,
      "不悔": 5954,
      "也有": 5955,
      "无礼": 5956,
      "长乐": 5957,
      "中间": 5958,
      "低声": 5959,
      "是在": 5960,
      "背心": 5961,
      "自在": 5962,
      "蛛儿": 5963,
      "门外": 5964,
      "黑白子": 5965,
      "刚才": 5966,
      "半分": 5967,
      "奶奶": 5968,
      "年轻": 5969,
      "急忙": 5970,
      "晓芙": 5971,
      "之色": 5972,
      "客气": 5973,
      "老头": 5974,
      "若不是": 5975,
      "还不": 5976,
      "天鹰教": 5977,
      "母亲": 5978,
      "然道": 5979,
      "玄慈": 5980,
      "说是": 5981,
      "德诺": 5982,
      "走进": 5983,
      "跟你说": 5984,
      "五岳剑派": 5985,
      "取出": 5986,
      "叹道": 5987,
      "实是": 5988,
      "早就": 5989,
      "正在": 5990,
      "玄难": 5991,
      "顷刻": 5992,
      "长乐帮": 5993,
      "一句": 5994,
      "全然": 5995,
      "发出": 5996,
      "回到": 5997,
      "大为": 5998,
      "对手": 5999,
      "颇有": 6000,
      "风波": 6001,
      "云中鹤": 6002,
      "伸出": 6003,
      "地方": 6004,
      "纵身": 6005,
      "而来": 6006,
      "还没": 6007,
      "的一声响": 6008,
      "下手": 6009,
      "生平": 6010,
      "骂道": 6011,
      "一起": 6012,
      "之情": 6013,
      "劳德诺": 6014,
      "大吃一惊": 6015,
      "他在": 6016,
      "你可": 6017,
      "公主": 6018,
      "均想": 6019,
      "天石": 6020,
      "奇道": 6021,
      "正要": 6022,
      "着实": 6023,
      "竟是": 6024,
      "行礼": 6025,
      "表哥": 6026,
      "说过": 6027,
      "不理": 6028,
      "只盼": 6029,
      "大惊": 6030,
      "老衲": 6031,
      "若不": 6032,
      "规矩": 6033,
      "这句话": 6034,
      "司马": 6035,
      "巴天石": 6036,
      "磕头": 6037,
      "耶律": 6038,
      "这次": 6039,
      "慕容公子": 6040,
      "生气": 6041,
      "相貌": 6042,
      "等人": 6043,
      "纪晓芙": 6044,
      "远桥": 6045,
      "之力": 6046,
      "二娘": 6047,
      "众弟子": 6048,
      "你去": 6049,
      "房中": 6050,
      "毒手": 6051,
      "对他": 6052,
      "将她": 6053,
      "教众": 6054,
      "王姑娘": 6055,
      "老子": 6056,
      "那便": 6057,
      "一块": 6058,
      "乃是": 6059,
      "你也": 6060,
      "蓦地": 6061,
      "不戒": 6062,
      "从未": 6063,
      "便已": 6064,
      "做了": 6065,
      "待得": 6066,
      "该当": 6067,
      "这一下": 6068,
      "他二人": 6069,
      "时候": 6070,
      "本教": 6071,
      "圣火令": 6072,
      "中年": 6073,
      "圆真": 6074,
      "宋远桥": 6075,
      "自行": 6076,
      "害怕": 6077,
      "甚为": 6078,
      "相助": 6079,
      "一眼": 6080,
      "万仇": 6081,
      "五人": 6082,
      "而行": 6083,
      "自当": 6084,
      "门派": 6085,
      "你别": 6086,
      "出口": 6087,
      "和我": 6088,
      "大怒": 6089,
      "未免": 6090,
      "一定": 6091,
      "一指": 6092,
      "听她": 6093,
      "幸好": 6094,
      "然而": 6095,
      "用力": 6096,
      "那老者": 6097,
      "一点": 6098,
      "不但": 6099,
      "他老人家": 6100,
      "怎会": 6101,
      "担心": 6102,
      "明明": 6103,
      "洪基": 6104,
      "秋水": 6105,
      "这番": 6106,
      "钟万仇": 6107,
      "鹿杖": 6108,
      "丁不三": 6109,
      "一张": 6110,
      "也都": 6111,
      "你又": 6112,
      "她们": 6113,
      "应道": 6114,
      "得知": 6115,
      "所以": 6116,
      "此后": 6117,
      "苦头": 6118,
      "什么事": 6119,
      "一样": 6120,
      "丹臣": 6121,
      "到他": 6122,
      "叶二娘": 6123,
      "颤声道": 6124,
      "也不会": 6125,
      "人之": 6126,
      "喝酒": 6127,
      "有了": 6128,
      "高明": 6129,
      "了下去": 6130,
      "劲力": 6131,
      "我在": 6132,
      "无可": 6133,
      "瞧去": 6134,
      "了三": 6135,
      "以后": 6136,
      "故意": 6137,
      "朗声道": 6138,
      "朱丹臣": 6139,
      "岳灵珊道": 6140,
      "宝刀": 6141,
      "害死": 6142,
      "尚未": 6143,
      "意思": 6144,
      "打得": 6145,
      "四下": 6146,
      "更无": 6147,
      "波斯": 6148,
      "这许多": 6149,
      "那可": 6150,
      "仪和": 6151,
      "似是": 6152,
      "行事": 6153,
      "要紧": 6154,
      "一听": 6155,
      "不久": 6156,
      "便向": 6157,
      "寺中": 6158,
      "师兄弟": 6159,
      "既然": 6160,
      "朗声": 6161,
      "竟然": 6162,
      "罢了": 6163,
      "这一次": 6164,
      "风波恶": 6165,
      "鹿杖客": 6166,
      "九阳": 6167,
      "蒙古": 6168,
      "起了": 6169,
      "也就": 6170,
      "无量": 6171,
      "本事": 6172,
      "言道": 6173,
      "说的": 6174,
      "不上": 6175,
      "令人": 6176,
      "的情": 6177,
      "聪明": 6178,
      "便在此时": 6179,
      "不绝": 6180,
      "半空": 6181,
      "回答": 6182,
      "接过": 6183,
      "放心": 6184,
      "殷天": 6185,
      "相距": 6186,
      "阿紫道": 6187,
      "伤口": 6188,
      "又惊": 6189,
      "尽皆": 6190,
      "干净": 6191,
      "是了": 6192,
      "道理": 6193,
      "陆大有": 6194,
      "不多时": 6195,
      "一一": 6196,
      "到处": 6197,
      "吃了": 6198,
      "惊呼": 6199,
      "李秋水": 6200,
      "此处": 6201,
      "殷天正": 6202,
      "一口": 6203,
      "千万": 6204,
      "走近": 6205,
      "不许": 6206,
      "别说": 6207,
      "哼了一声": 6208,
      "干吗": 6209,
      "快快": 6210,
      "快步": 6211,
      "眼中": 6212,
      "种种": 6213,
      "绝技": 6214,
      "莫非": 6215,
      "让他": 6216,
      "颇为": 6217,
      "太过": 6218,
      "指着": 6219,
      "摇了": 6220,
      "显得": 6221,
      "也不是": 6222,
      "看得": 6223,
      "要我": 6224,
      "动弹": 6225,
      "友谅": 6226,
      "定然": 6227,
      "少侠": 6228,
      "若非": 6229,
      "足道": 6230,
      "高峰": 6231,
      "高强": 6232,
      "哈哈一笑": 6233,
      "不定": 6234,
      "但听得": 6235,
      "大厅": 6236,
      "小弟": 6237,
      "山上": 6238,
      "手足": 6239,
      "明知": 6240,
      "至于": 6241,
      "一切": 6242,
      "何处": 6243,
      "大丈夫": 6244,
      "姑苏": 6245,
      "我就": 6246,
      "神剑": 6247,
      "闪避": 6248,
      "陈友谅": 6249,
      "丹青": 6250,
      "另有": 6251,
      "妻子": 6252,
      "定静": 6253,
      "左掌": 6254,
      "倚天": 6255,
      "力气": 6256,
      "好手": 6257,
      "将这": 6258,
      "杨不悔": 6259,
      "给她": 6260,
      "说不得": 6261,
      "银子": 6262,
      "一言": 6263,
      "六人": 6264,
      "然后": 6265,
      "真人": 6266,
      "大理国": 6267,
      "契丹人": 6268,
      "那女童": 6269,
      "一生": 6270,
      "一红": 6271,
      "却已": 6272,
      "只因": 6273,
      "朱长": 6274,
      "的了": 6275,
      "空智": 6276,
      "而起": 6277,
      "门户": 6278,
      "萧峰道": 6279,
      "光明顶": 6280,
      "不便": 6281,
      "单刀": 6282,
      "又有什么": 6283,
      "想来": 6284,
      "想不到": 6285,
      "施主": 6286,
      "黑衣": 6287,
      "朱长龄": 6288,
      "岂能": 6289,
      "手上": 6290,
      "桌上": 6291,
      "每一": 6292,
      "祖千秋": 6293,
      "身受": 6294,
      "连连": 6295,
      "阿朱道": 6296,
      "不平": 6297,
      "刀法": 6298,
      "永远": 6299,
      "百川": 6300,
      "真正": 6301,
      "赵敏道": 6302,
      "耶律洪基": 6303,
      "之心": 6304,
      "大半": 6305,
      "最好": 6306,
      "灵鹫": 6307,
      "脑袋": 6308,
      "莫大": 6309,
      "记得": 6310,
      "这老": 6311,
      "逃走": 6312,
      "凶险": 6313,
      "变化": 6314,
      "呼吸": 6315,
      "恭敬": 6316,
      "的老": 6317,
      "相见": 6318,
      "脚下": 6319,
      "赵钱": 6320,
      "同门": 6321,
      "忘了": 6322,
      "比之": 6323,
      "脾气": 6324,
      "都已": 6325,
      "盈盈道": 6326,
      "五岳派": 6327,
      "定要": 6328,
      "山洞": 6329,
      "徒儿": 6330,
      "在一旁": 6331,
      "赵钱孙": 6332,
      "以及": 6333,
      "四名": 6334,
      "岂知": 6335,
      "衣袖": 6336,
      "英雄好汉": 6337,
      "两步": 6338,
      "不知如何": 6339,
      "这么说": 6340,
      "那人道": 6341,
      "君子": 6342,
      "子道": 6343,
      "是不": 6344,
      "木高峰": 6345,
      "淡淡": 6346,
      "身材": 6347,
      "那女子": 6348,
      "又惊又": 6349,
      "丹青生": 6350,
      "一场": 6351,
      "中土": 6352,
      "你想": 6353,
      "双眼": 6354,
      "当当": 6355,
      "悄悄": 6356,
      "抱着": 6357,
      "施展": 6358,
      "率领": 6359,
      "破绽": 6360,
      "你师父": 6361,
      "便能": 6362,
      "到来": 6363,
      "向西": 6364,
      "头发": 6365,
      "岂不": 6366,
      "日月": 6367,
      "白自在": 6368,
      "精神": 6369,
      "糊涂": 6370,
      "豪杰": 6371,
      "遇春": 6372,
      "邓百川": 6373,
      "六脉": 6374,
      "剑术": 6375,
      "双方": 6376,
      "恩师": 6377,
      "数丈": 6378,
      "讯息": 6379,
      "遇到": 6380,
      "上山": 6381,
      "二哥": 6382,
      "几步": 6383,
      "太师父": 6384,
      "已经": 6385,
      "待我": 6386,
      "松溪": 6387,
      "而下": 6388,
      "大爷": 6389,
      "女弟子": 6390,
      "岛上": 6391,
      "常遇春": 6392,
      "招式": 6393,
      "空闻": 6394,
      "解开": 6395,
      "道长": 6396,
      "慕容博": 6397,
      "摇了摇头": 6398,
      "不明": 6399,
      "修习": 6400,
      "声中": 6401,
      "徐长老": 6402,
      "有点": 6403,
      "设法": 6404,
      "一把": 6405,
      "一行": 6406,
      "以致": 6407,
      "内劲": 6408,
      "大大": 6409,
      "家人": 6410,
      "崆峒": 6411,
      "星河": 6412,
      "更是": 6413,
      "纵然": 6414,
      "说起": 6415,
      "镇南": 6416,
      "面目": 6417,
      "一日": 6418,
      "一根": 6419,
      "再来": 6420,
      "委实": 6421,
      "的名": 6422,
      "灵鹫宫": 6423,
      "不怕": 6424,
      "中玉": 6425,
      "便可": 6426,
      "别人": 6427,
      "异常": 6428,
      "旁观": 6429,
      "江南": 6430,
      "苏星河": 6431,
      "定静师太": 6432,
      "中有": 6433,
      "发觉": 6434,
      "固然": 6435,
      "家伙": 6436,
      "张松溪": 6437,
      "微笑": 6438,
      "见识": 6439,
      "不说": 6440,
      "不足": 6441,
      "何等": 6442,
      "大宋": 6443,
      "用意": 6444,
      "盟主": 6445,
      "逍遥": 6446,
      "转头向": 6447,
      "不想": 6448,
      "不自": 6449,
      "却也不": 6450,
      "张教主": 6451,
      "当世": 6452,
      "心里": 6453,
      "有所": 6454,
      "这就": 6455,
      "都大": 6456,
      "一句话": 6457,
      "人众": 6458,
      "光闪": 6459,
      "出声": 6460,
      "右臂": 6461,
      "大夫": 6462,
      "好笑": 6463,
      "心念": 6464,
      "日子": 6465,
      "殷离": 6466,
      "毕竟": 6467,
      "理会": 6468,
      "星宿派": 6469,
      "上下": 6470,
      "也要": 6471,
      "伤了": 6472,
      "冷笑": 6473,
      "前面": 6474,
      "回过": 6475,
      "夫妻": 6476,
      "将来": 6477,
      "往往": 6478,
      "成为": 6479,
      "无数": 6480,
      "本帮": 6481,
      "桃根": 6482,
      "清清楚": 6483,
      "瞧得": 6484,
      "身穿": 6485,
      "六脉神剑": 6486,
      "清清楚楚": 6487,
      "一番": 6488,
      "之言": 6489,
      "传来": 6490,
      "六个": 6491,
      "右掌": 6492,
      "哪一": 6493,
      "家的": 6494,
      "岳先生": 6495,
      "得意": 6496,
      "是要": 6497,
      "毒药": 6498,
      "直到": 6499,
      "群弟子": 6500,
      "这话": 6501,
      "陡然": 6502,
      "险些": 6503,
      "这一剑": 6504,
      "大名": 6505,
      "桃花": 6506,
      "百姓": 6507,
      "慕容氏": 6508,
      "从来没": 6509,
      "侠客": 6510,
      "凌厉": 6511,
      "定闲": 6512,
      "心意": 6513,
      "我又": 6514,
      "杀我": 6515,
      "桃枝": 6516,
      "此言": 6517,
      "深厚": 6518,
      "铁链": 6519,
      "不出来": 6520,
      "丛中": 6521,
      "大石": 6522,
      "小可": 6523,
      "已有": 6524,
      "王爷": 6525,
      "经脉": 6526,
      "衡山": 6527,
      "跃起": 6528,
      "非同": 6529,
      "令狐冲笑道": 6530,
      "这一掌": 6531,
      "谢逊道": 6532,
      "不死": 6533,
      "伤心": 6534,
      "力道": 6535,
      "大了": 6536,
      "石中玉": 6537,
      "随手": 6538,
      "方证大师": 6539,
      "不答": 6540,
      "你瞧": 6541,
      "又是一": 6542,
      "四位": 6543,
      "尸身": 6544,
      "敏君": 6545,
      "诧异": 6546,
      "一下": 6547,
      "一团": 6548,
      "一口气": 6549,
      "不断": 6550,
      "也无": 6551,
      "了半": 6552,
      "客店": 6553,
      "抵挡": 6554,
      "那位": 6555,
      "鹤笔翁": 6556,
      "星宿老": 6557,
      "辟邪剑法": 6558,
      "丁敏君": 6559,
      "你怎么": 6560,
      "在你": 6561,
      "在自己": 6562,
      "好人": 6563,
      "妙极": 6564,
      "念头": 6565,
      "没想到": 6566,
      "罗汉": 6567,
      "而死": 6568,
      "运气": 6569,
      "这可": 6570,
      "倚天剑": 6571,
      "镇南王": 6572,
      "不停": 6573,
      "全是": 6574,
      "岂不是": 6575,
      "断了": 6576,
      "七人": 6577,
      "但觉": 6578,
      "修为": 6579,
      "内息": 6580,
      "哪一个": 6581,
      "嘻嘻": 6582,
      "外人": 6583,
      "容貌": 6584,
      "有余": 6585,
      "有时": 6586,
      "相斗": 6587,
      "谁都": 6588,
      "避开": 6589,
      "之道": 6590,
      "任教主": 6591,
      "何足道": 6592,
      "使出": 6593,
      "再加": 6594,
      "初时": 6595,
      "却不知": 6596,
      "并肩": 6597,
      "的弟子": 6598,
      "的功夫": 6599,
      "竟会": 6600,
      "岳不群道": 6601,
      "辟邪剑谱": 6602,
      "不着": 6603,
      "二十余": 6604,
      "于他": 6605,
      "你再": 6606,
      "去吧": 6607,
      "反手": 6608,
      "发作": 6609,
      "喜道": 6610,
      "奔到": 6611,
      "姊夫": 6612,
      "手法": 6613,
      "火焰": 6614,
      "而且": 6615,
      "远处": 6616,
      "高兴": 6617,
      "张翠山道": 6618,
      "莫大先生": 6619,
      "为他": 6620,
      "乾坤": 6621,
      "了不起": 6622,
      "住他": 6623,
      "全冠": 6624,
      "去找": 6625,
      "双臂": 6626,
      "四字": 6627,
      "开口": 6628,
      "我来": 6629,
      "数十年": 6630,
      "的剑法": 6631,
      "自知": 6632,
      "菩萨": 6633,
      "转念": 6634,
      "全冠清": 6635,
      "倒在地": 6636,
      "决不能": 6637,
      "又问": 6638,
      "双足": 6639,
      "望去": 6640,
      "来得": 6641,
      "走吧": 6642,
      "高人": 6643,
      "全力": 6644,
      "决不会": 6645,
      "司空": 6646,
      "抱拳": 6647,
      "无耻": 6648,
      "相交": 6649,
      "神医": 6650,
      "龙头": 6651,
      "蓦地里": 6652,
      "朗声说道": 6653,
      "女人": 6654,
      "对你": 6655,
      "布袋": 6656,
      "惭愧": 6657,
      "汉人": 6658,
      "犹如": 6659,
      "皇太": 6660,
      "续道": 6661,
      "认得": 6662,
      "当真是": 6663,
      "一柄": 6664,
      "中所": 6665,
      "了她": 6666,
      "便宜": 6667,
      "凝视": 6668,
      "剧毒": 6669,
      "向她": 6670,
      "奈何": 6671,
      "情势": 6672,
      "放下": 6673,
      "望着": 6674,
      "没人": 6675,
      "的所在": 6676,
      "经过": 6677,
      "而上": 6678,
      "西域": 6679,
      "霎时间": 6680,
      "之一": 6681,
      "了过来": 6682,
      "传授": 6683,
      "几句": 6684,
      "向我": 6685,
      "拔出": 6686,
      "接连": 6687,
      "数日": 6688,
      "这种": 6689,
      "金刚": 6690,
      "林平之道": 6691,
      "的人物": 6692,
      "不信": 6693,
      "不易": 6694,
      "之士": 6695,
      "从前": 6696,
      "从怀中": 6697,
      "大王": 6698,
      "比武": 6699,
      "眉头": 6700,
      "虽是": 6701,
      "身份": 6702,
      "身在": 6703,
      "过得": 6704,
      "过了一会": 6705,
      "过不多时": 6706,
      "青袍": 6707,
      "三招": 6708,
      "之地": 6709,
      "伤势": 6710,
      "公冶": 6711,
      "大法": 6712,
      "物事": 6713,
      "见到了": 6714,
      "一人道": 6715,
      "得罪了": 6716,
      "非同小可": 6717,
      "一晃": 6718,
      "你爹爹": 6719,
      "使得": 6720,
      "凝神": 6721,
      "心上": 6722,
      "擒拿": 6723,
      "料到": 6724,
      "来历": 6725,
      "正好": 6726,
      "泰山": 6727,
      "男女": 6728,
      "老婆": 6729,
      "赵姑娘": 6730,
      "一个个": 6731,
      "霎时之间": 6732,
      "了一个": 6733,
      "二老": 6734,
      "你在": 6735,
      "你就": 6736,
      "原是": 6737,
      "和她": 6738,
      "嗤嗤": 6739,
      "性子": 6740,
      "惊道": 6741,
      "时分": 6742,
      "段氏": 6743,
      "的内力": 6744,
      "输了": 6745,
      "黄钟": 6746,
      "一派": 6747,
      "两只": 6748,
      "亲眼": 6749,
      "低头": 6750,
      "口道": 6751,
      "呼呼": 6752,
      "四十": 6753,
      "围攻": 6754,
      "拱手": 6755,
      "玄冥": 6756,
      "站着": 6757,
      "一件": 6758,
      "一来": 6759,
      "上乘": 6760,
      "之法": 6761,
      "你既": 6762,
      "使的": 6763,
      "便去": 6764,
      "偏偏": 6765,
      "小腹": 6766,
      "手里": 6767,
      "敌手": 6768,
      "若有": 6769,
      "如何能": 6770,
      "都大锦": 6771,
      "黄钟公": 6772,
      "一刀": 6773,
      "三哥": 6774,
      "不懂": 6775,
      "免得": 6776,
      "尚有": 6777,
      "已将": 6778,
      "心神": 6779,
      "红棉": 6780,
      "七十二": 6781,
      "不识": 6782,
      "之位": 6783,
      "之所": 6784,
      "你快": 6785,
      "周姑娘": 6786,
      "无所": 6787,
      "朱九": 6788,
      "李四": 6789,
      "法门": 6790,
      "疑心": 6791,
      "难过": 6792,
      "立时便": 6793,
      "两声": 6794,
      "之内": 6795,
      "于我": 6796,
      "伤人": 6797,
      "你来": 6798,
      "留下": 6799,
      "行走": 6800,
      "衣服": 6801,
      "便想": 6802,
      "哪有": 6803,
      "在旁": 6804,
      "坐着": 6805,
      "声息": 6806,
      "带着": 6807,
      "并未": 6808,
      "本领": 6809,
      "自幼": 6810,
      "薛神医": 6811,
      "走去": 6812,
      "门人": 6813,
      "老头子": 6814,
      "了去": 6815,
      "你还": 6816,
      "你自己": 6817,
      "倒也不": 6818,
      "只想": 6819,
      "在山": 6820,
      "坐下": 6821,
      "定了": 6822,
      "救人": 6823,
      "有如": 6824,
      "派人": 6825,
      "神仙": 6826,
      "联手": 6827,
      "觉远": 6828,
      "钟夫人": 6829,
      "少林僧": 6830,
      "原来是": 6831,
      "三僧": 6832,
      "上官": 6833,
      "亲自": 6834,
      "剑士": 6835,
      "另一个": 6836,
      "司徒": 6837,
      "恭恭敬": 6838,
      "我想": 6839,
      "无色": 6840,
      "欺侮": 6841,
      "百余": 6842,
      "相对": 6843,
      "舵主": 6844,
      "伸手去": 6845,
      "侠客岛": 6846,
      "恭恭敬敬": 6847,
      "不来": 6848,
      "举起": 6849,
      "你为什么": 6850,
      "冲儿": 6851,
      "凌霄": 6852,
      "吐蕃": 6853,
      "喀喇": 6854,
      "找到": 6855,
      "服侍": 6856,
      "毫不": 6857,
      "没什么": 6858,
      "泰山派": 6859,
      "砰的一声": 6860,
      "落地": 6861,
      "要他": 6862,
      "跪下": 6863,
      "达摩": 6864,
      "还礼": 6865,
      "那也不": 6866,
      "各派": 6867,
      "圈子": 6868,
      "心法": 6869,
      "戒律": 6870,
      "打开": 6871,
      "桃实": 6872,
      "脱身": 6873,
      "话来": 6874,
      "令狐公子": 6875,
      "只见他": 6876,
      "了几下": 6877,
      "说不出的": 6878,
      "凌霄城": 6879,
      "乔帮主": 6880,
      "五个": 6881,
      "便知": 6882,
      "在后": 6883,
      "大门": 6884,
      "将那": 6885,
      "张五": 6886,
      "必定": 6887,
      "智光": 6888,
      "泪水": 6889,
      "耳中": 6890,
      "铜牌": 6891,
      "人都": 6892,
      "其后": 6893,
      "几乎": 6894,
      "卑鄙": 6895,
      "慈悲": 6896,
      "我瞧": 6897,
      "或许": 6898,
      "杂种": 6899,
      "桃干": 6900,
      "没了": 6901,
      "看到": 6902,
      "而至": 6903,
      "跟随": 6904,
      "辽国": 6905,
      "这两个": 6906,
      "青年": 6907,
      "黄眉": 6908,
      "转过身来": 6909,
      "三娘": 6910,
      "下马": 6911,
      "不像": 6912,
      "任何": 6913,
      "出现": 6914,
      "啪啪": 6915,
      "喝彩": 6916,
      "声大": 6917,
      "既是": 6918,
      "疼痛": 6919,
      "精妙": 6920,
      "鞑子": 6921,
      "身受重伤": 6922,
      "一次": 6923,
      "事情": 6924,
      "休息": 6925,
      "但若": 6926,
      "变成": 6927,
      "啪的一声": 6928,
      "大都": 6929,
      "威力": 6930,
      "对不起": 6931,
      "没半点": 6932,
      "狮王": 6933,
      "绝无": 6934,
      "非也": 6935,
      "王语嫣道": 6936,
      "上所": 6937,
      "不语": 6938,
      "之辈": 6939,
      "了么": 6940,
      "判官": 6941,
      "势必": 6942,
      "在江湖上": 6943,
      "才好": 6944,
      "拾起": 6945,
      "林中": 6946,
      "正自": 6947,
      "练功": 6948,
      "退开": 6949,
      "那大汉": 6950,
      "了一顿": 6951,
      "木婉清道": 6952,
      "不行": 6953,
      "二来": 6954,
      "假装": 6955,
      "奔出": 6956,
      "平平": 6957,
      "平时": 6958,
      "开来": 6959,
      "我没": 6960,
      "挪移": 6961,
      "杀他": 6962,
      "石庄主": 6963,
      "秦红棉": 6964,
      "走上": 6965,
      "额头": 6966,
      "奶奶的": 6967,
      "朱九真": 6968,
      "些什么": 6969,
      "人道": 6970,
      "另外": 6971,
      "山道": 6972,
      "开眼": 6973,
      "挺剑": 6974,
      "眼下": 6975,
      "自称": 6976,
      "语气": 6977,
      "还能": 6978,
      "两条": 6979,
      "仍然": 6980,
      "四大": 6981,
      "左足": 6982,
      "已久": 6983,
      "已给": 6984,
      "想必": 6985,
      "执法": 6986,
      "推开": 6987,
      "无论": 6988,
      "村女": 6989,
      "松树": 6990,
      "祖师": 6991,
      "那汉子": 6992,
      "动弹不得": 6993,
      "不胜": 6994,
      "今后": 6995,
      "令他": 6996,
      "佛门": 6997,
      "你便": 6998,
      "出于": 6999,
      "出言": 7000,
      "合十": 7001,
      "咽喉": 7002,
      "姓名": 7003,
      "张真人": 7004,
      "恶贼": 7005,
      "洞中": 7006,
      "海中": 7007,
      "纵马": 7008,
      "那边": 7009,
      "非烟": 7010,
      "多半是": 7011,
      "苦头陀": 7012,
      "不大": 7013,
      "世镜": 7014,
      "交给": 7015,
      "他又": 7016,
      "八九": 7017,
      "到哪里": 7018,
      "多年": 7019,
      "曲非烟": 7020,
      "每日": 7021,
      "空见": 7022,
      "轻轻一": 7023,
      "片刻间": 7024,
      "老爷子": 7025,
      "了吧": 7026,
      "刀剑": 7027,
      "安排": 7028,
      "得好": 7029,
      "皇上": 7030,
      "糟糕": 7031,
      "范蠡": 7032,
      "要你": 7033,
      "通红": 7034,
      "闻到": 7035,
      "少林派的": 7036,
      "那老僧": 7037,
      "生死符": 7038,
      "一百": 7039,
      "丹田": 7040,
      "为师": 7041,
      "可不能": 7042,
      "天门": 7043,
      "子穆": 7044,
      "对她": 7045,
      "心惊": 7046,
      "抓住了": 7047,
      "拔剑": 7048,
      "林师弟": 7049,
      "禅师": 7050,
      "老先生": 7051,
      "要去": 7052,
      "见这": 7053,
      "请问": 7054,
      "路上": 7055,
      "厉声道": 7056,
      "叫什么": 7057,
      "各处": 7058,
      "天龙": 7059,
      "好处": 7060,
      "将你": 7061,
      "左首": 7062,
      "怒气": 7063,
      "接着": 7064,
      "暗算": 7065,
      "的那": 7066,
      "离去": 7067,
      "离开": 7068,
      "葫芦": 7069,
      "读者": 7070,
      "这三": 7071,
      "武当山": 7072,
      "仪琳道": 7073,
      "放在心上": 7074,
      "顷刻间": 7075,
      "公冶乾": 7076,
      "黄眉僧": 7077,
      "无论如何": 7078,
      "你怎": 7079,
      "侍剑": 7080,
      "倒是": 7081,
      "勉强": 7082,
      "她是": 7083,
      "宁可": 7084,
      "尽是": 7085,
      "左子穆": 7086,
      "有几": 7087,
      "白世镜": 7088,
      "瞧了一眼": 7089,
      "要害": 7090,
      "马蹄": 7091,
      "天下英雄": 7092,
      "向问天道": 7093,
      "下落": 7094,
      "不尽": 7095,
      "不该": 7096,
      "以免": 7097,
      "仪清": 7098,
      "便欲": 7099,
      "后心": 7100,
      "呆了": 7101,
      "天地": 7102,
      "带头": 7103,
      "我不是": 7104,
      "来啦": 7105,
      "极是": 7106,
      "相互": 7107,
      "真相": 7108,
      "神僧": 7109,
      "那村女": 7110,
      "门关": 7111,
      "风清": 7112,
      "了一步": 7113,
      "脸上一红": 7114,
      "人人都": 7115,
      "一震": 7116,
      "不觉": 7117,
      "了些": 7118,
      "元璋": 7119,
      "去向": 7120,
      "取出一": 7121,
      "咳嗽": 7122,
      "大小姐": 7123,
      "将出来": 7124,
      "左臂": 7125,
      "得我": 7126,
      "摔倒": 7127,
      "放开": 7128,
      "无力": 7129,
      "柔声道": 7130,
      "秘笈": 7131,
      "谷中": 7132,
      "乔峰道": 7133,
      "那少女道": 7134,
      "司空玄": 7135,
      "但这": 7136,
      "你了": 7137,
      "叫人": 7138,
      "叫声": 7139,
      "妈的": 7140,
      "察看": 7141,
      "对自己": 7142,
      "屋顶": 7143,
      "已是": 7144,
      "帮众": 7145,
      "得住": 7146,
      "得过": 7147,
      "打了": 7148,
      "无穷": 7149,
      "星竹": 7150,
      "朱元璋": 7151,
      "深深": 7152,
      "火把": 7153,
      "男人": 7154,
      "聚贤": 7155,
      "船头": 7156,
      "送了": 7157,
      "了一阵": 7158,
      "武功高强": 7159,
      "一会儿": 7160,
      "得多了": 7161,
      "定闲师太": 7162,
      "一挥": 7163,
      "不下": 7164,
      "他虽": 7165,
      "剑柄": 7166,
      "声谷": 7167,
      "好意": 7168,
      "对头": 7169,
      "小兄弟": 7170,
      "尸体": 7171,
      "岂有": 7172,
      "待会": 7173,
      "想要": 7174,
      "打死": 7175,
      "暗自": 7176,
      "杀的": 7177,
      "的心": 7178,
      "的模样": 7179,
      "石帮主": 7180,
      "美貌": 7181,
      "胡子": 7182,
      "船上": 7183,
      "阮星竹": 7184,
      "领教": 7185,
      "这时候": 7186,
      "不相同": 7187,
      "风清扬": 7188,
      "一些": 7189,
      "不发": 7190,
      "之徒": 7191,
      "变色": 7192,
      "另一": 7193,
      "官兵": 7194,
      "少室": 7195,
      "展开": 7196,
      "感到": 7197,
      "文字": 7198,
      "眼泪": 7199,
      "练成": 7200,
      "若是": 7201,
      "见那": 7202,
      "说完": 7203,
      "说我": 7204,
      "请教": 7205,
      "郡主": 7206,
      "问你": 7207,
      "雪山": 7208,
      "司马林": 7209,
      "丫头": 7210,
      "可不是": 7211,
      "向外": 7212,
      "天山": 7213,
      "挣扎": 7214,
      "救我": 7215,
      "极为": 7216,
      "狠狠": 7217,
      "的长剑": 7218,
      "的言语": 7219,
      "算是": 7220,
      "莫声谷": 7221,
      "躲在": 7222,
      "阴毒": 7223,
      "出来的": 7224,
      "包不同道": 7225,
      "定逸师太": 7226,
      "回过头来": 7227,
      "一座": 7228,
      "他心中": 7229,
      "便不": 7230,
      "几下": 7231,
      "刷刷": 7232,
      "四肢": 7233,
      "外面": 7234,
      "大树": 7235,
      "如果": 7236,
      "尴尬": 7237,
      "抢上": 7238,
      "拉着": 7239,
      "无声": 7240,
      "暂且": 7241,
      "死不": 7242,
      "狼狈": 7243,
      "着了": 7244,
      "群丐": 7245,
      "自尽": 7246,
      "诸般": 7247,
      "赶到": 7248,
      "较量": 7249,
      "令狐冲心想": 7250,
      "见到他": 7251,
      "石清夫妇": 7252,
      "就是了": 7253,
      "不休": 7254,
      "义气": 7255,
      "也必": 7256,
      "也未必": 7257,
      "你我": 7258,
      "侠义": 7259,
      "俯身": 7260,
      "先行": 7261,
      "六大": 7262,
      "刺去": 7263,
      "剧痛": 7264,
      "可说": 7265,
      "向北": 7266,
      "均是": 7267,
      "太师叔": 7268,
      "心知": 7269,
      "才道": 7270,
      "拍手": 7271,
      "拳脚": 7272,
      "比剑": 7273,
      "焦急": 7274,
      "狗杂种": 7275,
      "脸颊": 7276,
      "轻响": 7277,
      "不自禁": 7278,
      "不顾": 7279,
      "中毒": 7280,
      "便了": 7281,
      "出招": 7282,
      "出神": 7283,
      "四周": 7284,
      "壁上": 7285,
      "大大的": 7286,
      "察觉": 7287,
      "是非": 7288,
      "气息": 7289,
      "观主": 7290,
      "长叹": 7291,
      "面子": 7292,
      "乾坤大": 7293,
      "一瞥": 7294,
      "不妨": 7295,
      "便请": 7296,
      "又不是": 7297,
      "小姑娘": 7298,
      "崔百": 7299,
      "怀里": 7300,
      "情景": 7301,
      "我也不": 7302,
      "抬起": 7303,
      "死在": 7304,
      "猛地": 7305,
      "留情": 7306,
      "让我": 7307,
      "谭婆": 7308,
      "迅捷": 7309,
      "闪电": 7310,
      "难得": 7311,
      "骇然": 7312,
      "乾坤大挪移": 7313,
      "下面": 7314,
      "人多": 7315,
      "伯父": 7316,
      "你如": 7317,
      "便似": 7318,
      "凤凰": 7319,
      "匹马": 7320,
      "哪一位": 7321,
      "声势": 7322,
      "威名": 7323,
      "干系": 7324,
      "思索": 7325,
      "方生": 7326,
      "有意": 7327,
      "格格": 7328,
      "段郎": 7329,
      "田兄": 7330,
      "神态": 7331,
      "空性": 7332,
      "老三": 7333,
      "胸膛": 7334,
      "跟她": 7335,
      "身手": 7336,
      "迅速": 7337,
      "这中间": 7338,
      "醒转": 7339,
      "长的": 7340,
      "食指": 7341,
      "一个女子": 7342,
      "公子爷": 7343,
      "自然而": 7344,
      "到底是": 7345,
      "崔百泉": 7346,
      "不做": 7347,
      "不服": 7348,
      "之命": 7349,
      "二位": 7350,
      "你没": 7351,
      "使剑": 7352,
      "前后": 7353,
      "双剑": 7354,
      "吐露": 7355,
      "呼叫": 7356,
      "商议": 7357,
      "地瞧着": 7358,
      "太极": 7359,
      "小船": 7360,
      "结交": 7361,
      "老夫": 7362,
      "肚子": 7363,
      "诡计": 7364,
      "身法": 7365,
      "转眼": 7366,
      "软鞭": 7367,
      "金毛": 7368,
      "他们的": 7369,
      "知道了": 7370,
      "少林寺中": 7371,
      "上官云": 7372,
      "三字": 7373,
      "不小": 7374,
      "中一": 7375,
      "今天": 7376,
      "十五": 7377,
      "听着": 7378,
      "喝了": 7379,
      "外号": 7380,
      "好不好": 7381,
      "子弟": 7382,
      "小丐": 7383,
      "已极": 7384,
      "微一": 7385,
      "总算": 7386,
      "散人": 7387,
      "的女子": 7388,
      "笑容": 7389,
      "绿竹": 7390,
      "老僧": 7391,
      "谭公": 7392,
      "贵派": 7393,
      "踏步": 7394,
      "都有": 7395,
      "顿了一顿": 7396,
      "那女郎": 7397,
      "青袍客": 7398,
      "中国": 7399,
      "为我": 7400,
      "二字": 7401,
      "八个": 7402,
      "出门": 7403,
      "在哪里": 7404,
      "妇人": 7405,
      "已在": 7406,
      "眼色": 7407,
      "竟没": 7408,
      "莹玉": 7409,
      "识得": 7410,
      "语音": 7411,
      "说他": 7412,
      "诸人": 7413,
      "这场": 7414,
      "只见她": 7415,
      "慕容复道": 7416,
      "自然而然": 7417,
      "之物": 7418,
      "人所": 7419,
      "以来": 7420,
      "但想": 7421,
      "冤枉": 7422,
      "决意": 7423,
      "同道": 7424,
      "崖上": 7425,
      "左肩": 7426,
      "彭莹玉": 7427,
      "得一": 7428,
      "急道": 7429,
      "惊惶": 7430,
      "玄寂": 7431,
      "甚多": 7432,
      "继续": 7433,
      "脱手": 7434,
      "落在": 7435,
      "遇上": 7436,
      "自然是": 7437,
      "金毛狮王": 7438,
      "万分": 7439,
      "三名": 7440,
      "今晚": 7441,
      "余观主": 7442,
      "便会": 7443,
      "便往": 7444,
      "充满了": 7445,
      "十来": 7446,
      "和你": 7447,
      "大是": 7448,
      "大胆": 7449,
      "将下来": 7450,
      "尸首": 7451,
      "待要": 7452,
      "摇晃": 7453,
      "方能": 7454,
      "碰到": 7455,
      "福威": 7456,
      "竭力": 7457,
      "耳光": 7458,
      "香主": 7459,
      "也不过": 7460,
      "不作": 7461,
      "之余": 7462,
      "加害": 7463,
      "发现": 7464,
      "可就": 7465,
      "向那": 7466,
      "圣姑": 7467,
      "恼怒": 7468,
      "猴儿": 7469,
      "舌头": 7470,
      "落入": 7471,
      "诸位": 7472,
      "迷糊": 7473,
      "追赶": 7474,
      "静玄": 7475,
      "黄衫": 7476,
      "身上的": 7477,
      "手中长剑": 7478,
      "昆仑派": 7479,
      "又惊又喜": 7480,
      "一双": 7481,
      "七伤": 7482,
      "他见": 7483,
      "但见他": 7484,
      "住了他": 7485,
      "便来": 7486,
      "偷袭": 7487,
      "再好": 7488,
      "刀白": 7489,
      "半个": 7490,
      "又怎": 7491,
      "又何必": 7492,
      "平一指": 7493,
      "杨莲": 7494,
      "根手指": 7495,
      "正中": 7496,
      "治伤": 7497,
      "胜败": 7498,
      "萧远": 7499,
      "衡山派": 7500,
      "重大": 7501,
      "阳教主": 7502,
      "福威镖局": 7503,
      "一身": 7504,
      "丁丁": 7505,
      "不明白": 7506,
      "且慢": 7507,
      "事先": 7508,
      "人影": 7509,
      "人来": 7510,
      "他自": 7511,
      "众兄弟": 7512,
      "你好": 7513,
      "内心": 7514,
      "几时": 7515,
      "反正": 7516,
      "发抖": 7517,
      "向着": 7518,
      "太阳": 7519,
      "得上": 7520,
      "意料": 7521,
      "本寺": 7522,
      "枯荣": 7523,
      "武艺": 7524,
      "淑娴": 7525,
      "班淑娴": 7526,
      "窗外": 7527,
      "而前": 7528,
      "而是": 7529,
      "胖子": 7530,
      "腿上": 7531,
      "走向": 7532,
      "陛下": 7533,
      "难当": 7534,
      "魔头": 7535,
      "怎么办": 7536,
      "恭恭敬敬地": 7537,
      "带头大哥": 7538,
      "杨莲亭": 7539,
      "不算": 7540,
      "之至": 7541,
      "从他": 7542,
      "元兵": 7543,
      "十九": 7544,
      "十六": 7545,
      "天色": 7546,
      "好吧": 7547,
      "无相": 7548,
      "犹似": 7549,
      "看时": 7550,
      "等等": 7551,
      "贤弟": 7552,
      "走开": 7553,
      "雁门关": 7554,
      "也没什么": 7555,
      "大声叫道": 7556,
      "九阳神功": 7557,
      "心念一动": 7558,
      "下一": 7559,
      "不凡": 7560,
      "不等": 7561,
      "交情": 7562,
      "关心": 7563,
      "到后来": 7564,
      "却没": 7565,
      "向令狐冲": 7566,
      "图形": 7567,
      "坐骑": 7568,
      "对准": 7569,
      "我再": 7570,
      "我只": 7571,
      "扶起": 7572,
      "抬头": 7573,
      "抱起": 7574,
      "时刻": 7575,
      "月光": 7576,
      "本想": 7577,
      "的道": 7578,
      "竟不": 7579,
      "而不": 7580,
      "肌肤": 7581,
      "西华": 7582,
      "计无": 7583,
      "过的": 7584,
      "还手": 7585,
      "龙岛主": 7586,
      "了一口": 7587,
      "剑法的": 7588,
      "武林中的": 7589,
      "丝毫不": 7590,
      "张五侠": 7591,
      "七伤拳": 7592,
      "刀白凤": 7593,
      "两字": 7594,
      "他知": 7595,
      "他武功": 7596,
      "传功": 7597,
      "十三": 7598,
      "呆呆": 7599,
      "喃喃": 7600,
      "学得": 7601,
      "我若": 7602,
      "拜见": 7603,
      "掌法": 7604,
      "次日": 7605,
      "毙命": 7606,
      "父子": 7607,
      "的名字": 7608,
      "真有": 7609,
      "着地": 7610,
      "秃笔翁": 7611,
      "自身": 7612,
      "还在": 7613,
      "逼得": 7614,
      "门口": 7615,
      "龙门": 7616,
      "一个大": 7617,
      "十余丈": 7618,
      "田伯光道": 7619,
      "那老妇": 7620,
      "计无施": 7621,
      "不通": 7622,
      "之手": 7623,
      "仰天": 7624,
      "匆匆": 7625,
      "商量": 7626,
      "嗤的一声": 7627,
      "大骂": 7628,
      "好看": 7629,
      "并没": 7630,
      "想是": 7631,
      "我看": 7632,
      "斜身": 7633,
      "独孤": 7634,
      "相似": 7635,
      "着的": 7636,
      "而后": 7637,
      "蓝凤凰": 7638,
      "跃上": 7639,
      "还道": 7640,
      "这姓": 7641,
      "飞出": 7642,
      "什么人": 7643,
      "不敢再": 7644,
      "天下第一": 7645,
      "七侠": 7646,
      "以前": 7647,
      "写着": 7648,
      "名叫": 7649,
      "向东": 7650,
      "学武": 7651,
      "寒毒": 7652,
      "将自己": 7653,
      "将过来": 7654,
      "峰上": 7655,
      "左使": 7656,
      "年前": 7657,
      "支持": 7658,
      "牢牢": 7659,
      "秘密": 7660,
      "笑话": 7661,
      "这条": 7662,
      "陈长老": 7663,
      "顺手": 7664,
      "令狐兄": 7665,
      "令狐掌门": 7666,
      "周芷若道": 7667,
      "脚步声响": 7668,
      "半空中": 7669,
      "不管": 7670,
      "不轻": 7671,
      "之理": 7672,
      "他想": 7673,
      "几名": 7674,
      "刺出": 7675,
      "后面": 7676,
      "好像": 7677,
      "好极": 7678,
      "娃娃": 7679,
      "小妹": 7680,
      "师门": 7681,
      "床上": 7682,
      "慕华": 7683,
      "我才": 7684,
      "打个": 7685,
      "救命": 7686,
      "无异": 7687,
      "树枝": 7688,
      "沉沉": 7689,
      "洛阳": 7690,
      "用心": 7691,
      "盼望": 7692,
      "群僧": 7693,
      "表妹": 7694,
      "赞道": 7695,
      "跃出": 7696,
      "这门": 7697,
      "飘飘": 7698,
      "华山派的": 7699,
      "跟我说": 7700,
      "四下里": 7701,
      "一行人": 7702,
      "也只": 7703,
      "于你": 7704,
      "五派": 7705,
      "保昆": 7706,
      "却见": 7707,
      "名门": 7708,
      "坏人": 7709,
      "岁年纪": 7710,
      "打听": 7711,
      "教中": 7712,
      "方位": 7713,
      "暗想": 7714,
      "有理": 7715,
      "望了一眼": 7716,
      "本因": 7717,
      "极大": 7718,
      "死尸": 7719,
      "死的": 7720,
      "游迅": 7721,
      "火龙": 7722,
      "热闹": 7723,
      "瞧在": 7724,
      "西北": 7725,
      "诸保昆": 7726,
      "谁也不": 7727,
      "费彬": 7728,
      "还有什么": 7729,
      "风声": 7730,
      "是我的": 7731,
      "躬身道": 7732,
      "判官笔": 7733,
      "三分": 7734,
      "不堪": 7735,
      "之气": 7736,
      "乱跳": 7737,
      "便走": 7738,
      "取过": 7739,
      "向张无忌": 7740,
      "听见": 7741,
      "回归": 7742,
      "多说": 7743,
      "快活": 7744,
      "总镖头": 7745,
      "我先": 7746,
      "手持": 7747,
      "提到": 7748,
      "救了": 7749,
      "甚好": 7750,
      "生的": 7751,
      "相会": 7752,
      "短剑": 7753,
      "耳边": 7754,
      "船舱": 7755,
      "苦苦": 7756,
      "落下": 7757,
      "谢大侠": 7758,
      "运劲": 7759,
      "这路": 7760,
      "迟疑": 7761,
      "那矮": 7762,
      "阳指": 7763,
      "黑暗中": 7764,
      "什么都": 7765,
      "不能再": 7766,
      "那婆婆道": 7767,
      "三弟": 7768,
      "不安": 7769,
      "不清": 7770,
      "之旁": 7771,
      "任大小姐": 7772,
      "倒退": 7773,
      "动静": 7774,
      "危急": 7775,
      "喉头": 7776,
      "尽管": 7777,
      "心事": 7778,
      "忽道": 7779,
      "我已": 7780,
      "才知": 7781,
      "挥出": 7782,
      "掌心": 7783,
      "无意": 7784,
      "晃动": 7785,
      "沉重": 7786,
      "的遗": 7787,
      "相信": 7788,
      "禅杖": 7789,
      "等一": 7790,
      "老前辈": 7791,
      "耳朵": 7792,
      "胆敢": 7793,
      "试试": 7794,
      "跟他们": 7795,
      "还请": 7796,
      "高高": 7797,
      "过了良久": 7798,
      "任我行道": 7799,
      "一颗": 7800,
      "不忍": 7801,
      "之势": 7802,
      "也真": 7803,
      "仍是": 7804,
      "侧身": 7805,
      "几声": 7806,
      "只可惜": 7807,
      "史火龙": 7808,
      "呼喝": 7809,
      "彭和尚": 7810,
      "我了": 7811,
      "我二人": 7812,
      "所未": 7813,
      "招呼": 7814,
      "杀你": 7815,
      "梅庄": 7816,
      "王家": 7817,
      "而过": 7818,
      "苦大师": 7819,
      "薛慕华": 7820,
      "蝠王": 7821,
      "那一": 7822,
      "闪身": 7823,
      "阴阳": 7824,
      "隔了": 7825,
      "飞身": 7826,
      "令狐冲的": 7827,
      "干净净": 7828,
      "意料之外": 7829,
      "为你": 7830,
      "九剑": 7831,
      "他既": 7832,
      "伸指": 7833,
      "你倒": 7834,
      "先后": 7835,
      "又再": 7836,
      "宝剑": 7837,
      "宫女": 7838,
      "师徒": 7839,
      "干干净净": 7840,
      "必有": 7841,
      "我自己": 7842,
      "数里": 7843,
      "晚上": 7844,
      "最多": 7845,
      "眼里": 7846,
      "神教": 7847,
      "稍有": 7848,
      "范骅": 7849,
      "茶花": 7850,
      "走得": 7851,
      "连声": 7852,
      "金刀": 7853,
      "令狐冲和": 7854,
      "内伤": 7855,
      "化解": 7856,
      "半截": 7857,
      "只剩": 7858,
      "平安": 7859,
      "广陵": 7860,
      "手脚": 7861,
      "拇指": 7862,
      "拿起": 7863,
      "掷出": 7864,
      "放了": 7865,
      "既已": 7866,
      "极高": 7867,
      "生了": 7868,
      "皱眉": 7869,
      "破了": 7870,
      "第四": 7871,
      "答话": 7872,
      "缥缈": 7873,
      "老实": 7874,
      "般的": 7875,
      "要将": 7876,
      "送到": 7877,
      "面相": 7878,
      "颈中": 7879,
      "驸马": 7880,
      "张无忌心想": 7881,
      "这番话": 7882,
      "星宿老怪": 7883,
      "五指": 7884,
      "伏在": 7885,
      "你若": 7886,
      "前去": 7887,
      "君宝": 7888,
      "告知": 7889,
      "大变": 7890,
      "插入": 7891,
      "汝阳": 7892,
      "王子": 7893,
      "眼珠": 7894,
      "着她": 7895,
      "端端": 7896,
      "练剑": 7897,
      "行动": 7898,
      "贱人": 7899,
      "赶来": 7900,
      "随便": 7901,
      "黄金": 7902,
      "黑木": 7903,
      "丐帮帮主": 7904,
      "沉吟道": 7905,
      "那便如何": 7906,
      "神仙姊姊": 7907,
      "丁丁当当": 7908,
      "龙门镖局": 7909,
      "一出": 7910,
      "一顿": 7911,
      "临死": 7912,
      "乘马": 7913,
      "你先": 7914,
      "八名": 7915,
      "匕首": 7916,
      "厅上": 7917,
      "又向": 7918,
      "又说": 7919,
      "双腿": 7920,
      "告辞": 7921,
      "呛啷": 7922,
      "大功": 7923,
      "宝典": 7924,
      "害死了": 7925,
      "强敌": 7926,
      "怎生": 7927,
      "怦怦": 7928,
      "故事": 7929,
      "木姑娘": 7930,
      "未曾": 7931,
      "现身": 7932,
      "的高手": 7933,
      "绝顶": 7934,
      "老天": 7935,
      "背影": 7936,
      "胡乱": 7937,
      "观看": 7938,
      "这招": 7939,
      "遇上了": 7940,
      "那姑娘": 7941,
      "郑萼": 7942,
      "阴谋": 7943,
      "的一响": 7944,
      "那是什么": 7945,
      "上一步": 7946,
      "抓住他": 7947,
      "那日在": 7948,
      "汝阳王": 7949,
      "一呆": 7950,
      "一家": 7951,
      "一道": 7952,
      "不妥": 7953,
      "不开": 7954,
      "他和": 7955,
      "他妈的": 7956,
      "住她": 7957,
      "余人": 7958,
      "侧头": 7959,
      "几次": 7960,
      "千里": 7961,
      "又将": 7962,
      "取胜": 7963,
      "变成了": 7964,
      "可怖": 7965,
      "各自": 7966,
      "声名": 7967,
      "处穴道": 7968,
      "多大": 7969,
      "威震": 7970,
      "居士": 7971,
      "张君宝": 7972,
      "我家": 7973,
      "手势": 7974,
      "手段": 7975,
      "打了个": 7976,
      "拍出": 7977,
      "数招": 7978,
      "昨晚": 7979,
      "朝廷": 7980,
      "的脸": 7981,
      "的汉子": 7982,
      "的尸身": 7983,
      "石室": 7984,
      "破解": 7985,
      "素来": 7986,
      "而为": 7987,
      "褚万里": 7988,
      "这少年": 7989,
      "进了": 7990,
      "难免": 7991,
      "飞刀": 7992,
      "十余人": 7993,
      "片刻之间": 7994,
      "在这儿": 7995,
      "心中一凛": 7996,
      "三十六": 7997,
      "一看": 7998,
      "不听": 7999
    },
    "merges": [
      [
        "什",
        "么"
      ],
      [
        "令",
        "狐"
      ],
      [
        "说",
        "道"
      ],
      [
        "令狐",
        "冲"
      ],
      [
        "无",
        "忌"
      ],
      [
        "自",
        "己"
      ],
      [
        "张",
        "无忌"
      ],
      [
        "一",
        "个"
      ],
      [
        "也",
        "不"
      ],
      [
        "了",
        "一"
      ],
      [
        "段",
        "誉"
      ],
      [
        "不",
        "是"
      ],
      [
        "武",
        "功"
      ],
      [
        "笑",
        "道"
      ],
      [
        "咱",
        "们"
      ],
      [
        "一",
        "声"
      ],
      [
        "师",
        "父"
      ],
      [
        "弟",
        "子"
      ],
      [
        "不",
        "知"
      ],
      [
        "这",
        "一"
      ],
      [
        "听",
        "得"
      ],
      [
        "心",
        "中"
      ],
      [
        "少",
        "林"
      ],
      [
        "出",
        "来"
      ],
      [
        "他",
        "们"
      ],
      [
        "如",
        "何"
      ],
      [
        "如",
        "此"
      ],
      [
        "姑",
        "娘"
      ],
      [
        "山",
        "派"
      ],
      [
        "突",
        "然"
      ],
      [
        "我",
        "们"
      ],
      [
        "二",
        "人"
      ],
      [
        "萧",
        "峰"
      ],
      [
        "心",
        "想"
      ],
      [
        "叫",
        "道"
      ],
      [
        "破",
        "天"
      ],
      [
        "石",
        "破天"
      ],
      [
        "之",
        "中"
      ],
      [
        "慕",
        "容"
      ],
      [
        "兄",
        "弟"
      ],
      [
        "声",
        "道"
      ],
      [
        "便",
        "是"
      ],
      [
        "不",
        "能"
      ],
      [
        "夫",
        "人"
      ],
      [
        "不",
        "过"
      ],
      [
        "到",
        "了"
      ],
      [
        "虚",
        "竹"
      ],
      [
        "剑",
        "法"
      ],
      [
        "大",
        "师"
      ],
      [
        "的",
        "一声"
      ],
      [
        "只",
        "见"
      ],
      [
        "不",
        "得"
      ],
      [
        "倘",
        "若"
      ],
      [
        "不",
        "可"
      ],
      [
        "你",
        "们"
      ],
      [
        "教",
        "主"
      ],
      [
        "众",
        "人"
      ],
      [
        "两",
        "人"
      ],
      [
        "长",
        "剑"
      ],
      [
        "内",
        "力"
      ],
      [
        "原",
        "来"
      ],
      [
        "不",
        "敢"
      ],
      [
        "知",
        "道"
      ],
      [
        "帮",
        "主"
      ],
      [
        "婆",
        "婆"
      ],
      [
        "见",
        "到"
      ],
      [
        "不",
        "住"
      ],
      [
        "掌",
        "门"
      ],
      [
        "这",
        "么"
      ],
      [
        "脸",
        "上"
      ],
      [
        "今",
        "日"
      ],
      [
        "之",
        "间"
      ],
      [
        "怎",
        "么"
      ],
      [
        "都",
        "是"
      ],
      [
        "身",
        "子"
      ],
      [
        "身",
        "上"
      ],
      [
        "先",
        "生"
      ],
      [
        "赵",
        "敏"
      ],
      [
        "之",
        "后"
      ],
      [
        "这",
        "里"
      ],
      [
        "有",
        "人"
      ],
      [
        "这",
        "些"
      ],
      [
        "天",
        "下"
      ],
      [
        "乔",
        "峰"
      ],
      [
        "跟",
        "着"
      ],
      [
        "当",
        "真"
      ],
      [
        "一",
        "人"
      ],
      [
        "之",
        "下"
      ],
      [
        "谢",
        "逊"
      ],
      [
        "一",
        "笑"
      ],
      [
        "可",
        "是"
      ],
      [
        "说",
        "话"
      ],
      [
        "声",
        "音"
      ],
      [
        "不",
        "群"
      ],
      [
        "岳",
        "不群"
      ],
      [
        "公",
        "子"
      ],
      [
        "起",
        "来"
      ],
      [
        "问",
        "道"
      ],
      [
        "武",
        "林"
      ],
      [
        "翠",
        "山"
      ],
      [
        "这",
        "时"
      ],
      [
        "阿",
        "紫"
      ],
      [
        "张",
        "翠山"
      ],
      [
        "有",
        "什么"
      ],
      [
        "那",
        "人"
      ],
      [
        "爹",
        "爹"
      ],
      [
        "心",
        "下"
      ],
      [
        "这",
        "个"
      ],
      [
        "的",
        "一"
      ],
      [
        "长",
        "老"
      ],
      [
        "了",
        "他"
      ],
      [
        "只",
        "是"
      ],
      [
        "阿",
        "朱"
      ],
      [
        "登",
        "时"
      ],
      [
        "盈",
        "盈"
      ],
      [
        "正",
        "是"
      ],
      [
        "人",
        "家"
      ],
      [
        "师",
        "太"
      ],
      [
        "性",
        "命"
      ],
      [
        "还",
        "是"
      ],
      [
        "伸",
        "手"
      ],
      [
        "句",
        "话"
      ],
      [
        "江",
        "湖"
      ],
      [
        "见",
        "他"
      ],
      [
        "左",
        "手"
      ],
      [
        "不",
        "会"
      ],
      [
        "和",
        "尚"
      ],
      [
        "手",
        "中"
      ],
      [
        "三",
        "人"
      ],
      [
        "地",
        "道"
      ],
      [
        "是",
        "我"
      ],
      [
        "女",
        "子"
      ],
      [
        "武",
        "当"
      ],
      [
        "喝",
        "道"
      ],
      [
        "这",
        "位"
      ],
      [
        "自",
        "然"
      ],
      [
        "功",
        "夫"
      ],
      [
        "说",
        "着"
      ],
      [
        "平",
        "之"
      ],
      [
        "两",
        "个"
      ],
      [
        "中",
        "的"
      ],
      [
        "你",
        "的"
      ],
      [
        "语",
        "嫣"
      ],
      [
        "灵",
        "珊"
      ],
      [
        "难",
        "道"
      ],
      [
        "过",
        "去"
      ],
      [
        "丐",
        "帮"
      ],
      [
        "师",
        "兄"
      ],
      [
        "是",
        "一"
      ],
      [
        "林",
        "平之"
      ],
      [
        "人",
        "的"
      ],
      [
        "不",
        "到"
      ],
      [
        "在",
        "下"
      ],
      [
        "岳",
        "灵珊"
      ],
      [
        "王",
        "语嫣"
      ],
      [
        "令狐冲",
        "道"
      ],
      [
        "芷",
        "若"
      ],
      [
        "你",
        "说"
      ],
      [
        "哈",
        "哈"
      ],
      [
        "少林",
        "寺"
      ],
      [
        "慕容",
        "复"
      ],
      [
        "英",
        "雄"
      ],
      [
        "大",
        "哥"
      ],
      [
        "也",
        "没"
      ],
      [
        "不",
        "由"
      ],
      [
        "有",
        "一"
      ],
      [
        "你",
        "这"
      ],
      [
        "只",
        "怕"
      ],
      [
        "出",
        "去"
      ],
      [
        "右",
        "手"
      ],
      [
        "他",
        "的"
      ],
      [
        "住",
        "了"
      ],
      [
        "派",
        "的"
      ],
      [
        "一",
        "般"
      ],
      [
        "双",
        "手"
      ],
      [
        "了",
        "几"
      ],
      [
        "明",
        "教"
      ],
      [
        "我",
        "的"
      ],
      [
        "也",
        "是"
      ],
      [
        "上",
        "的"
      ],
      [
        "杀",
        "了"
      ],
      [
        "对",
        "方"
      ],
      [
        "说",
        "不"
      ],
      [
        "下",
        "来"
      ],
      [
        "出",
        "手"
      ],
      [
        "地",
        "下"
      ],
      [
        "这",
        "等"
      ],
      [
        "段",
        "正"
      ],
      [
        "点",
        "头"
      ],
      [
        "当",
        "即"
      ],
      [
        "周",
        "芷若"
      ],
      [
        "为",
        "什么"
      ],
      [
        "十",
        "余"
      ],
      [
        "那",
        "是"
      ],
      [
        "听",
        "到"
      ],
      [
        "在",
        "一"
      ],
      [
        "死",
        "了"
      ],
      [
        "过",
        "了"
      ],
      [
        "之",
        "人"
      ],
      [
        "之",
        "时"
      ],
      [
        "哪",
        "里"
      ],
      [
        "明",
        "白"
      ],
      [
        "那",
        "少"
      ],
      [
        "此",
        "刻"
      ],
      [
        "师",
        "妹"
      ],
      [
        "便",
        "即"
      ],
      [
        "老",
        "者"
      ],
      [
        "段正",
        "淳"
      ],
      [
        "只",
        "听得"
      ],
      [
        "想",
        "到"
      ],
      [
        "在",
        "他"
      ],
      [
        "前",
        "辈"
      ],
      [
        "是",
        "个"
      ],
      [
        "本",
        "来"
      ],
      [
        "当",
        "下"
      ],
      [
        "上",
        "一"
      ],
      [
        "上",
        "了"
      ],
      [
        "汉",
        "子"
      ],
      [
        "眼",
        "见"
      ],
      [
        "高",
        "手"
      ],
      [
        "是",
        "谁"
      ],
      [
        "小",
        "子"
      ],
      [
        "这",
        "般"
      ],
      [
        "口",
        "气"
      ],
      [
        "婉",
        "清"
      ],
      [
        "木",
        "婉清"
      ],
      [
        "不",
        "同"
      ],
      [
        "不由",
        "得"
      ],
      [
        "十",
        "分"
      ],
      [
        "厉",
        "害"
      ],
      [
        "过",
        "来"
      ],
      [
        "仪",
        "琳"
      ],
      [
        "摇",
        "头"
      ],
      [
        "师",
        "弟"
      ],
      [
        "微",
        "微"
      ],
      [
        "轻",
        "轻"
      ],
      [
        "伯",
        "光"
      ],
      [
        "将",
        "他"
      ],
      [
        "田",
        "伯光"
      ],
      [
        "之",
        "极"
      ],
      [
        "夫",
        "妇"
      ],
      [
        "的",
        "大"
      ],
      [
        "第",
        "一"
      ],
      [
        "兵",
        "刃"
      ],
      [
        "身",
        "来"
      ],
      [
        "似",
        "乎"
      ],
      [
        "朋",
        "友"
      ],
      [
        "一",
        "时"
      ],
      [
        "胸",
        "口"
      ],
      [
        "这",
        "才"
      ],
      [
        "给",
        "他"
      ],
      [
        "下",
        "去"
      ],
      [
        "为",
        "了"
      ],
      [
        "敌",
        "人"
      ],
      [
        "不",
        "见"
      ],
      [
        "许",
        "多"
      ],
      [
        "大",
        "理"
      ],
      [
        "两",
        "位"
      ],
      [
        "来",
        "到"
      ],
      [
        "了",
        "出来"
      ],
      [
        "这",
        "几"
      ],
      [
        "之",
        "事"
      ],
      [
        "全",
        "身"
      ],
      [
        "魔",
        "教"
      ],
      [
        "张",
        "三"
      ],
      [
        "我",
        "不"
      ],
      [
        "穴",
        "道"
      ],
      [
        "不",
        "错"
      ],
      [
        "这",
        "样"
      ],
      [
        "的",
        "是"
      ],
      [
        "走",
        "到"
      ],
      [
        "到",
        "底"
      ],
      [
        "石",
        "清"
      ],
      [
        "张无忌",
        "道"
      ],
      [
        "不",
        "禁"
      ],
      [
        "就",
        "算"
      ],
      [
        "站",
        "起"
      ],
      [
        "只",
        "觉"
      ],
      [
        "适",
        "才"
      ],
      [
        "立",
        "时"
      ],
      [
        "你",
        "不"
      ],
      [
        "忽",
        "听得"
      ],
      [
        "华",
        "山派"
      ],
      [
        "鸠",
        "摩"
      ],
      [
        "却",
        "是"
      ],
      [
        "童",
        "姥"
      ],
      [
        "怎",
        "地"
      ],
      [
        "说",
        "得"
      ],
      [
        "鸠摩",
        "智"
      ],
      [
        "虽",
        "然"
      ],
      [
        "你",
        "是"
      ],
      [
        "的",
        "人"
      ],
      [
        "一",
        "惊"
      ],
      [
        "同",
        "时"
      ],
      [
        "当",
        "年"
      ],
      [
        "心",
        "道"
      ],
      [
        "就",
        "是"
      ],
      [
        "更",
        "加"
      ],
      [
        "果",
        "然"
      ],
      [
        "之",
        "意"
      ],
      [
        "出",
        "一"
      ],
      [
        "素",
        "素"
      ],
      [
        "大",
        "声"
      ],
      [
        "旁",
        "人"
      ],
      [
        "这",
        "是"
      ],
      [
        "只",
        "听"
      ],
      [
        "妈",
        "妈"
      ],
      [
        "我",
        "一"
      ],
      [
        "丁",
        "不"
      ],
      [
        "向",
        "他"
      ],
      [
        "大",
        "叫"
      ],
      [
        "此",
        "时"
      ],
      [
        "甚",
        "是"
      ],
      [
        "恒",
        "山派"
      ],
      [
        "忽",
        "然"
      ],
      [
        "殷",
        "素素"
      ],
      [
        "这",
        "人"
      ],
      [
        "大",
        "家"
      ],
      [
        "师",
        "叔"
      ],
      [
        "不",
        "及"
      ],
      [
        "动",
        "手"
      ],
      [
        "便",
        "在"
      ],
      [
        "之",
        "外"
      ],
      [
        "儿",
        "子"
      ],
      [
        "怒",
        "道"
      ],
      [
        "否",
        "则"
      ],
      [
        "各",
        "人"
      ],
      [
        "给",
        "你"
      ],
      [
        "之",
        "上"
      ],
      [
        "想",
        "起"
      ],
      [
        "只",
        "有"
      ],
      [
        "杨",
        "逍"
      ],
      [
        "我",
        "行"
      ],
      [
        "却",
        "又"
      ],
      [
        "慢",
        "慢"
      ],
      [
        "片",
        "刻"
      ],
      [
        "他",
        "一"
      ],
      [
        "居",
        "然"
      ],
      [
        "不",
        "肯"
      ],
      [
        "四",
        "人"
      ],
      [
        "后",
        "来"
      ],
      [
        "大",
        "笑"
      ],
      [
        "年",
        "纪"
      ],
      [
        "不",
        "起"
      ],
      [
        "五",
        "岳"
      ],
      [
        "华",
        "山"
      ],
      [
        "我",
        "是"
      ],
      [
        "任",
        "我行"
      ],
      [
        "契",
        "丹"
      ],
      [
        "一",
        "招"
      ],
      [
        "第",
        "二"
      ],
      [
        "十",
        "年"
      ],
      [
        "向",
        "问"
      ],
      [
        "道",
        "人"
      ],
      [
        "向问",
        "天"
      ],
      [
        "人",
        "人"
      ],
      [
        "说",
        "到"
      ],
      [
        "一",
        "阵"
      ],
      [
        "不",
        "好"
      ],
      [
        "始",
        "终"
      ],
      [
        "方",
        "丈"
      ],
      [
        "了",
        "这"
      ],
      [
        "半",
        "点"
      ],
      [
        "那少",
        "女"
      ],
      [
        "峨",
        "嵋"
      ],
      [
        "给",
        "我"
      ],
      [
        "南",
        "海"
      ],
      [
        "又",
        "道"
      ],
      [
        "此",
        "人"
      ],
      [
        "游",
        "坦"
      ],
      [
        "那",
        "么"
      ],
      [
        "是",
        "不是"
      ],
      [
        "那",
        "老"
      ],
      [
        "少林",
        "派"
      ],
      [
        "因",
        "此"
      ],
      [
        "武林",
        "中"
      ],
      [
        "游坦",
        "之"
      ],
      [
        "低",
        "声道"
      ],
      [
        "去",
        "了"
      ],
      [
        "瞧",
        "瞧"
      ],
      [
        "之",
        "声"
      ],
      [
        "件",
        "事"
      ],
      [
        "其",
        "实"
      ],
      [
        "内",
        "功"
      ],
      [
        "在",
        "这里"
      ],
      [
        "早",
        "已"
      ],
      [
        "上",
        "来"
      ],
      [
        "大",
        "有"
      ],
      [
        "没",
        "有"
      ],
      [
        "此",
        "事"
      ],
      [
        "义",
        "父"
      ],
      [
        "的",
        "手"
      ],
      [
        "神",
        "功"
      ],
      [
        "了",
        "个"
      ],
      [
        "冷",
        "禅"
      ],
      [
        "左",
        "冷禅"
      ],
      [
        "但",
        "见"
      ],
      [
        "段誉",
        "道"
      ],
      [
        "突然",
        "间"
      ],
      [
        "听",
        "他"
      ],
      [
        "群",
        "豪"
      ],
      [
        "鳄",
        "神"
      ],
      [
        "却",
        "也"
      ],
      [
        "南海",
        "鳄神"
      ],
      [
        "青",
        "城"
      ],
      [
        "缓",
        "缓"
      ],
      [
        "跟",
        "我"
      ],
      [
        "他",
        "是"
      ],
      [
        "的",
        "话"
      ],
      [
        "在",
        "这"
      ],
      [
        "在",
        "地下"
      ],
      [
        "言",
        "语"
      ],
      [
        "不",
        "成"
      ],
      [
        "老",
        "人家"
      ],
      [
        "脸",
        "色"
      ],
      [
        "春",
        "秋"
      ],
      [
        "一",
        "齐"
      ],
      [
        "师",
        "哥"
      ],
      [
        "你",
        "一"
      ],
      [
        "三",
        "个"
      ],
      [
        "不",
        "少"
      ],
      [
        "钟",
        "灵"
      ],
      [
        "江湖",
        "上"
      ],
      [
        "张三",
        "丰"
      ],
      [
        "丁",
        "春秋"
      ],
      [
        "寻",
        "思"
      ],
      [
        "之",
        "前"
      ],
      [
        "多",
        "半"
      ],
      [
        "神",
        "色"
      ],
      [
        "转",
        "身"
      ],
      [
        "了",
        "我"
      ],
      [
        "了",
        "起来"
      ],
      [
        "未",
        "必"
      ],
      [
        "着",
        "一"
      ],
      [
        "丁",
        "珰"
      ],
      [
        "丈",
        "夫"
      ],
      [
        "来",
        "的"
      ],
      [
        "万",
        "剑"
      ],
      [
        "忍",
        "不住"
      ],
      [
        "眼",
        "前"
      ],
      [
        "不",
        "动"
      ],
      [
        "有",
        "的"
      ],
      [
        "立",
        "即"
      ],
      [
        "包",
        "不同"
      ],
      [
        "上",
        "前"
      ],
      [
        "只",
        "要"
      ],
      [
        "不",
        "了"
      ],
      [
        "真",
        "气"
      ],
      [
        "难",
        "以"
      ],
      [
        "丝",
        "毫"
      ],
      [
        "大",
        "伙"
      ],
      [
        "女",
        "儿"
      ],
      [
        "灭",
        "绝"
      ],
      [
        "有",
        "些"
      ],
      [
        "群",
        "雄"
      ],
      [
        "并",
        "不"
      ],
      [
        "眼",
        "睛"
      ],
      [
        "鲜",
        "血"
      ],
      [
        "了",
        "口气"
      ],
      [
        "大",
        "的"
      ],
      [
        "白",
        "万剑"
      ],
      [
        "随",
        "即"
      ],
      [
        "其",
        "中"
      ],
      [
        "微",
        "笑道"
      ],
      [
        "终",
        "于"
      ],
      [
        "只",
        "不过"
      ],
      [
        "当",
        "时"
      ],
      [
        "便",
        "要"
      ],
      [
        "孩",
        "子"
      ],
      [
        "那",
        "个"
      ],
      [
        "仙",
        "道"
      ],
      [
        "西",
        "夏"
      ],
      [
        "说",
        "什么"
      ],
      [
        "之",
        "处"
      ],
      [
        "只",
        "得"
      ],
      [
        "七",
        "八"
      ],
      [
        "东",
        "方"
      ],
      [
        "何",
        "况"
      ],
      [
        "成",
        "了"
      ],
      [
        "星",
        "宿"
      ],
      [
        "自",
        "是"
      ],
      [
        "不",
        "出"
      ],
      [
        "只",
        "须"
      ],
      [
        "抓",
        "住"
      ],
      [
        "说",
        "了"
      ],
      [
        "好",
        "了"
      ],
      [
        "少",
        "年"
      ],
      [
        "已",
        "然"
      ],
      [
        "老",
        "大"
      ],
      [
        "灭绝",
        "师太"
      ],
      [
        "掌门",
        "人"
      ],
      [
        "声",
        "响"
      ],
      [
        "点",
        "了"
      ],
      [
        "两",
        "名"
      ],
      [
        "方",
        "证"
      ],
      [
        "手",
        "指"
      ],
      [
        "姊",
        "姊"
      ],
      [
        "跟",
        "你"
      ],
      [
        "大伙",
        "儿"
      ],
      [
        "小",
        "师妹"
      ],
      [
        "是",
        "你"
      ],
      [
        "不",
        "用"
      ],
      [
        "不",
        "料"
      ],
      [
        "桃",
        "谷"
      ],
      [
        "真",
        "的"
      ],
      [
        "肩",
        "头"
      ],
      [
        "躬",
        "身"
      ],
      [
        "得",
        "很"
      ],
      [
        "得",
        "罪"
      ],
      [
        "清",
        "楚"
      ],
      [
        "的",
        "声音"
      ],
      [
        "是",
        "什么"
      ],
      [
        "身",
        "前"
      ],
      [
        "出",
        "了"
      ],
      [
        "实",
        "在"
      ],
      [
        "金",
        "花"
      ],
      [
        "人",
        "物"
      ],
      [
        "叫",
        "做"
      ],
      [
        "中",
        "原"
      ],
      [
        "口",
        "中"
      ],
      [
        "大",
        "喜"
      ],
      [
        "莲",
        "舟"
      ],
      [
        "之",
        "际"
      ],
      [
        "师",
        "娘"
      ],
      [
        "武",
        "学"
      ],
      [
        "孩",
        "儿"
      ],
      [
        "师",
        "伯"
      ],
      [
        "便",
        "道"
      ],
      [
        "一",
        "名"
      ],
      [
        "提",
        "起"
      ],
      [
        "大",
        "声道"
      ],
      [
        "头",
        "来"
      ],
      [
        "满",
        "脸"
      ],
      [
        "不",
        "免"
      ],
      [
        "生",
        "死"
      ],
      [
        "身",
        "后"
      ],
      [
        "俞",
        "莲舟"
      ],
      [
        "小",
        "昭"
      ],
      [
        "脚",
        "步"
      ],
      [
        "瞧",
        "着"
      ],
      [
        "欢",
        "喜"
      ],
      [
        "沧",
        "海"
      ],
      [
        "不",
        "再"
      ],
      [
        "余",
        "沧海"
      ],
      [
        "放",
        "在"
      ],
      [
        "叫",
        "我"
      ],
      [
        "岳",
        "夫人"
      ],
      [
        "和",
        "他"
      ],
      [
        "的",
        "武功"
      ],
      [
        "阿",
        "碧"
      ],
      [
        "怎",
        "样"
      ],
      [
        "叹",
        "了口气"
      ],
      [
        "而",
        "出"
      ],
      [
        "还",
        "有"
      ],
      [
        "了一",
        "声"
      ],
      [
        "不",
        "如"
      ],
      [
        "十",
        "二"
      ],
      [
        "奇",
        "怪"
      ],
      [
        "几",
        "个"
      ],
      [
        "父",
        "亲"
      ],
      [
        "何",
        "必"
      ],
      [
        "你",
        "要"
      ],
      [
        "手",
        "下"
      ],
      [
        "不",
        "愿"
      ],
      [
        "延",
        "庆"
      ],
      [
        "掌",
        "力"
      ],
      [
        "爷",
        "爷"
      ],
      [
        "的",
        "事"
      ],
      [
        "跟",
        "他"
      ],
      [
        "各",
        "位"
      ],
      [
        "多",
        "谢"
      ],
      [
        "的",
        "小"
      ],
      [
        "雪",
        "山派"
      ],
      [
        "一",
        "直"
      ],
      [
        "受",
        "伤"
      ],
      [
        "觉",
        "得"
      ],
      [
        "大师",
        "哥"
      ],
      [
        "很",
        "好"
      ],
      [
        "无",
        "不"
      ],
      [
        "见",
        "过"
      ],
      [
        "手",
        "掌"
      ],
      [
        "半",
        "晌"
      ],
      [
        "名",
        "字"
      ],
      [
        "回",
        "来"
      ],
      [
        "显",
        "是"
      ],
      [
        "了",
        "得"
      ],
      [
        "啊",
        "哟"
      ],
      [
        "站起",
        "身来"
      ],
      [
        "开",
        "了"
      ],
      [
        "有",
        "何"
      ],
      [
        "模",
        "样"
      ],
      [
        "齐",
        "声"
      ],
      [
        "这么",
        "一"
      ],
      [
        "好",
        "生"
      ],
      [
        "须",
        "得"
      ],
      [
        "杀",
        "人"
      ],
      [
        "了一",
        "会"
      ],
      [
        "心中",
        "一"
      ],
      [
        "怎",
        "能"
      ],
      [
        "当",
        "然"
      ],
      [
        "下",
        "了"
      ],
      [
        "光",
        "明"
      ],
      [
        "定",
        "是"
      ],
      [
        "指",
        "点"
      ],
      [
        "干",
        "什么"
      ],
      [
        "答",
        "允"
      ],
      [
        "只",
        "道"
      ],
      [
        "这",
        "小"
      ],
      [
        "那",
        "女"
      ],
      [
        "不",
        "相"
      ],
      [
        "中",
        "了"
      ],
      [
        "手",
        "臂"
      ],
      [
        "见",
        "她"
      ],
      [
        "不",
        "论"
      ],
      [
        "我",
        "也"
      ],
      [
        "父",
        "母"
      ],
      [
        "一",
        "条"
      ],
      [
        "一",
        "面"
      ],
      [
        "保",
        "定"
      ],
      [
        "冲",
        "虚"
      ],
      [
        "暗",
        "暗"
      ],
      [
        "不",
        "败"
      ],
      [
        "金花",
        "婆婆"
      ],
      [
        "远",
        "远"
      ],
      [
        "保定",
        "帝"
      ],
      [
        "分",
        "别"
      ],
      [
        "剑",
        "谱"
      ],
      [
        "烟",
        "客"
      ],
      [
        "谢",
        "烟客"
      ],
      [
        "体",
        "内"
      ],
      [
        "数",
        "十"
      ],
      [
        "走",
        "了"
      ],
      [
        "哈哈",
        "大笑"
      ],
      [
        "的",
        "好"
      ],
      [
        "一",
        "会"
      ],
      [
        "了",
        "你"
      ],
      [
        "以",
        "为"
      ],
      [
        "多",
        "少"
      ],
      [
        "大",
        "事"
      ],
      [
        "晚",
        "辈"
      ],
      [
        "看",
        "来"
      ],
      [
        "东",
        "西"
      ],
      [
        "确",
        "是"
      ],
      [
        "镖",
        "局"
      ],
      [
        "自己",
        "的"
      ],
      [
        "微微",
        "一笑"
      ],
      [
        "那",
        "姓"
      ],
      [
        "显",
        "然"
      ],
      [
        "男",
        "子"
      ],
      [
        "说不",
        "定"
      ],
      [
        "古",
        "怪"
      ],
      [
        "丁不",
        "四"
      ],
      [
        "不",
        "必"
      ],
      [
        "便",
        "如"
      ],
      [
        "年",
        "来"
      ],
      [
        "怀",
        "中"
      ],
      [
        "摇头",
        "道"
      ],
      [
        "我",
        "这"
      ],
      [
        "衣",
        "衫"
      ],
      [
        "辟",
        "邪"
      ],
      [
        "不",
        "多"
      ],
      [
        "又",
        "想"
      ],
      [
        "向",
        "来"
      ],
      [
        "容",
        "易"
      ],
      [
        "昆",
        "仑"
      ],
      [
        "暗",
        "中"
      ],
      [
        "闵",
        "柔"
      ],
      [
        "阿",
        "绣"
      ],
      [
        "屠",
        "龙"
      ],
      [
        "我",
        "便"
      ],
      [
        "重",
        "伤"
      ],
      [
        "也",
        "好"
      ],
      [
        "二",
        "十"
      ],
      [
        "冷",
        "笑道"
      ],
      [
        "又",
        "是"
      ],
      [
        "满",
        "了"
      ],
      [
        "门",
        "下"
      ],
      [
        "嘿",
        "嘿"
      ],
      [
        "再",
        "说"
      ],
      [
        "哪",
        "知"
      ],
      [
        "见",
        "了"
      ],
      [
        "身",
        "旁"
      ],
      [
        "那",
        "日"
      ],
      [
        "这一",
        "招"
      ],
      [
        "一",
        "怔"
      ],
      [
        "一",
        "步"
      ],
      [
        "其",
        "时"
      ],
      [
        "尼",
        "姑"
      ],
      [
        "料",
        "想"
      ],
      [
        "马",
        "夫人"
      ],
      [
        "兀",
        "自"
      ],
      [
        "哥",
        "哥"
      ],
      [
        "武当",
        "派"
      ],
      [
        "大",
        "侠"
      ],
      [
        "无",
        "法"
      ],
      [
        "桃谷",
        "六"
      ],
      [
        "于",
        "是"
      ],
      [
        "东方",
        "不败"
      ],
      [
        "僧",
        "人"
      ],
      [
        "可",
        "惜"
      ],
      [
        "是",
        "以"
      ],
      [
        "这",
        "小子"
      ],
      [
        "三",
        "十"
      ],
      [
        "何",
        "以"
      ],
      [
        "功",
        "力"
      ],
      [
        "恒",
        "山"
      ],
      [
        "日",
        "后"
      ],
      [
        "转",
        "过"
      ],
      [
        "也不",
        "知"
      ],
      [
        "进",
        "来"
      ],
      [
        "我",
        "要"
      ],
      [
        "四",
        "个"
      ],
      [
        "得",
        "多"
      ],
      [
        "转",
        "头"
      ],
      [
        "除",
        "了"
      ],
      [
        "冷",
        "冷"
      ],
      [
        "那",
        "时"
      ],
      [
        "再",
        "也"
      ],
      [
        "给",
        "人"
      ],
      [
        "了一",
        "眼"
      ],
      [
        "不",
        "在"
      ],
      [
        "倒",
        "也"
      ],
      [
        "着",
        "他"
      ],
      [
        "我",
        "可"
      ],
      [
        "在",
        "地"
      ],
      [
        "头",
        "上"
      ],
      [
        "身",
        "边"
      ],
      [
        "剑",
        "招"
      ],
      [
        "嵩",
        "山派"
      ],
      [
        "而",
        "去"
      ],
      [
        "霎",
        "时"
      ],
      [
        "黑",
        "白"
      ],
      [
        "众",
        "位"
      ],
      [
        "招",
        "数"
      ],
      [
        "桃谷六",
        "仙"
      ],
      [
        "入",
        "了"
      ],
      [
        "小",
        "姐"
      ],
      [
        "并",
        "非"
      ],
      [
        "不",
        "要"
      ],
      [
        "报",
        "仇"
      ],
      [
        "梨",
        "亭"
      ],
      [
        "石",
        "壁"
      ],
      [
        "站",
        "在"
      ],
      [
        "高",
        "僧"
      ],
      [
        "也不",
        "敢"
      ],
      [
        "决",
        "计"
      ],
      [
        "听",
        "了"
      ],
      [
        "背",
        "上"
      ],
      [
        "一",
        "位"
      ],
      [
        "并",
        "无"
      ],
      [
        "总",
        "是"
      ],
      [
        "段",
        "延庆"
      ],
      [
        "殷",
        "梨亭"
      ],
      [
        "渐",
        "渐"
      ],
      [
        "一",
        "片"
      ],
      [
        "世",
        "上"
      ],
      [
        "却",
        "不"
      ],
      [
        "感",
        "激"
      ],
      [
        "答",
        "应"
      ],
      [
        "隐",
        "隐"
      ],
      [
        "回",
        "去"
      ],
      [
        "就",
        "此"
      ],
      [
        "手",
        "腕"
      ],
      [
        "是",
        "否"
      ],
      [
        "没",
        "法"
      ],
      [
        "胡",
        "说"
      ],
      [
        "下",
        "山"
      ],
      [
        "这",
        "两"
      ],
      [
        "从",
        "来"
      ],
      [
        "那",
        "些"
      ],
      [
        "下",
        "的"
      ],
      [
        "庄",
        "主"
      ],
      [
        "心",
        "头"
      ],
      [
        "一",
        "路"
      ],
      [
        "回",
        "头"
      ],
      [
        "所",
        "在"
      ],
      [
        "那",
        "也"
      ],
      [
        "那",
        "就"
      ],
      [
        "镖",
        "头"
      ],
      [
        "不",
        "对"
      ],
      [
        "前",
        "来"
      ],
      [
        "当",
        "日"
      ],
      [
        "得",
        "到"
      ],
      [
        "我",
        "和"
      ],
      [
        "上",
        "去"
      ],
      [
        "又",
        "有"
      ],
      [
        "岛",
        "主"
      ],
      [
        "嵩",
        "山"
      ],
      [
        "青",
        "书"
      ],
      [
        "令狐",
        "师兄"
      ],
      [
        "决",
        "不"
      ],
      [
        "史",
        "婆婆"
      ],
      [
        "在",
        "她"
      ],
      [
        "时",
        "辰"
      ],
      [
        "吩",
        "咐"
      ],
      [
        "在",
        "我"
      ],
      [
        "我",
        "说"
      ],
      [
        "那",
        "婆婆"
      ],
      [
        "佩",
        "服"
      ],
      [
        "我",
        "师父"
      ],
      [
        "说",
        "来"
      ],
      [
        "本",
        "派"
      ],
      [
        "纷",
        "纷"
      ],
      [
        "在一",
        "起"
      ],
      [
        "小",
        "心"
      ],
      [
        "五岳",
        "剑"
      ],
      [
        "终",
        "究"
      ],
      [
        "乌",
        "老大"
      ],
      [
        "周",
        "颠"
      ],
      [
        "目",
        "光"
      ],
      [
        "一",
        "剑"
      ],
      [
        "一",
        "动"
      ],
      [
        "良",
        "久"
      ],
      [
        "错",
        "了"
      ],
      [
        "万",
        "万"
      ],
      [
        "了",
        "两"
      ],
      [
        "听",
        "说"
      ],
      [
        "一个",
        "人"
      ],
      [
        "了",
        "下来"
      ],
      [
        "武",
        "士"
      ],
      [
        "段",
        "公子"
      ],
      [
        "这",
        "件事"
      ],
      [
        "这几",
        "句话"
      ],
      [
        "其",
        "余"
      ],
      [
        "尽",
        "数"
      ],
      [
        "皇",
        "帝"
      ],
      [
        "点头",
        "道"
      ],
      [
        "小",
        "说"
      ],
      [
        "岱",
        "岩"
      ],
      [
        "胡",
        "青"
      ],
      [
        "便",
        "将"
      ],
      [
        "叫",
        "你"
      ],
      [
        "可",
        "以"
      ],
      [
        "来",
        "越"
      ],
      [
        "不知",
        "道"
      ],
      [
        "中",
        "人"
      ],
      [
        "他",
        "说"
      ],
      [
        "喜",
        "欢"
      ],
      [
        "小",
        "人"
      ],
      [
        "生",
        "怕"
      ],
      [
        "请",
        "你"
      ],
      [
        "郭",
        "襄"
      ],
      [
        "点了",
        "点头"
      ],
      [
        "为",
        "人"
      ],
      [
        "对",
        "付"
      ],
      [
        "本",
        "门"
      ],
      [
        "越",
        "来越"
      ],
      [
        "大",
        "汉"
      ],
      [
        "头",
        "顶"
      ],
      [
        "她",
        "的"
      ],
      [
        "沉",
        "吟"
      ],
      [
        "也不",
        "能"
      ],
      [
        "胡青",
        "牛"
      ],
      [
        "一",
        "掌"
      ],
      [
        "八",
        "道"
      ],
      [
        "定",
        "逸"
      ],
      [
        "范",
        "遥"
      ],
      [
        "刘",
        "正"
      ],
      [
        "宋",
        "青书"
      ],
      [
        "刘正",
        "风"
      ],
      [
        "个",
        "个"
      ],
      [
        "是",
        "他"
      ],
      [
        "三",
        "位"
      ],
      [
        "好",
        "汉"
      ],
      [
        "子",
        "的"
      ],
      [
        "师",
        "姊"
      ],
      [
        "俞",
        "岱岩"
      ],
      [
        "向",
        "前"
      ],
      [
        "坐",
        "在"
      ],
      [
        "忙",
        "道"
      ],
      [
        "神",
        "情"
      ],
      [
        "面",
        "前"
      ],
      [
        "石破天",
        "道"
      ],
      [
        "青城",
        "派"
      ],
      [
        "只",
        "好"
      ],
      [
        "小",
        "僧"
      ],
      [
        "是",
        "啊"
      ],
      [
        "来",
        "了"
      ],
      [
        "真",
        "是"
      ],
      [
        "全",
        "无"
      ],
      [
        "千",
        "秋"
      ],
      [
        "受",
        "了"
      ],
      [
        "我",
        "去"
      ],
      [
        "露",
        "出"
      ],
      [
        "这些",
        "人"
      ],
      [
        "不",
        "去"
      ],
      [
        "剑",
        "尖"
      ],
      [
        "向",
        "后"
      ],
      [
        "无",
        "比"
      ],
      [
        "王",
        "夫人"
      ],
      [
        "第",
        "三"
      ],
      [
        "十",
        "八"
      ],
      [
        "吃",
        "了一"
      ],
      [
        "得",
        "紧"
      ],
      [
        "有",
        "个"
      ],
      [
        "而",
        "已"
      ],
      [
        "说不",
        "出"
      ],
      [
        "反",
        "而"
      ],
      [
        "得",
        "他"
      ],
      [
        "暗",
        "器"
      ],
      [
        "无",
        "人"
      ],
      [
        "峨嵋",
        "派"
      ],
      [
        "胡说",
        "八道"
      ],
      [
        "主",
        "人"
      ],
      [
        "了",
        "过去"
      ],
      [
        "双",
        "目"
      ],
      [
        "得",
        "了"
      ],
      [
        "笔",
        "翁"
      ],
      [
        "背",
        "后"
      ],
      [
        "双",
        "掌"
      ],
      [
        "将",
        "我"
      ],
      [
        "才",
        "是"
      ],
      [
        "解",
        "药"
      ],
      [
        "从",
        "此"
      ],
      [
        "先",
        "前"
      ],
      [
        "到",
        "得"
      ],
      [
        "海",
        "石"
      ],
      [
        "重",
        "重"
      ],
      [
        "左",
        "右"
      ],
      [
        "主",
        "意"
      ],
      [
        "恶",
        "人"
      ],
      [
        "相",
        "救"
      ],
      [
        "眼",
        "光"
      ],
      [
        "那",
        "小"
      ],
      [
        "韦",
        "一笑"
      ],
      [
        "突然",
        "之间"
      ],
      [
        "但",
        "他"
      ],
      [
        "号",
        "令"
      ],
      [
        "法",
        "子"
      ],
      [
        "贝",
        "海石"
      ],
      [
        "走",
        "出"
      ],
      [
        "一",
        "只"
      ],
      [
        "天",
        "鹰"
      ],
      [
        "进",
        "去"
      ],
      [
        "阁",
        "下"
      ],
      [
        "那少",
        "年"
      ],
      [
        "在",
        "此"
      ],
      [
        "太",
        "冲"
      ],
      [
        "妹",
        "子"
      ],
      [
        "腰",
        "间"
      ],
      [
        "身",
        "形"
      ],
      [
        "也",
        "已"
      ],
      [
        "何",
        "太冲"
      ],
      [
        "对",
        "我"
      ],
      [
        "说到",
        "这里"
      ],
      [
        "要",
        "是"
      ],
      [
        "为",
        "难"
      ],
      [
        "吓",
        "得"
      ],
      [
        "寻",
        "常"
      ],
      [
        "小",
        "小"
      ],
      [
        "冷冷",
        "地道"
      ],
      [
        "叫",
        "他"
      ],
      [
        "吃了一",
        "惊"
      ],
      [
        "一",
        "股"
      ],
      [
        "万",
        "里"
      ],
      [
        "了",
        "出去"
      ],
      [
        "大",
        "吃"
      ],
      [
        "是",
        "好"
      ],
      [
        "轻",
        "功"
      ],
      [
        "虚竹",
        "道"
      ],
      [
        "便",
        "有"
      ],
      [
        "少",
        "女"
      ],
      [
        "属",
        "下"
      ],
      [
        "最",
        "后"
      ],
      [
        "现",
        "下"
      ],
      [
        "老",
        "爷"
      ],
      [
        "云",
        "中"
      ],
      [
        "将",
        "军"
      ],
      [
        "我",
        "爹爹"
      ],
      [
        "林",
        "震"
      ],
      [
        "知",
        "他"
      ],
      [
        "屠龙",
        "刀"
      ],
      [
        "林震",
        "南"
      ],
      [
        "好",
        "好"
      ],
      [
        "成",
        "昆"
      ],
      [
        "数",
        "百"
      ],
      [
        "圣",
        "火"
      ],
      [
        "要",
        "杀"
      ],
      [
        "一",
        "见"
      ],
      [
        "不",
        "悔"
      ],
      [
        "也",
        "有"
      ],
      [
        "无",
        "礼"
      ],
      [
        "长",
        "乐"
      ],
      [
        "中",
        "间"
      ],
      [
        "低",
        "声"
      ],
      [
        "是",
        "在"
      ],
      [
        "背",
        "心"
      ],
      [
        "自",
        "在"
      ],
      [
        "蛛",
        "儿"
      ],
      [
        "门",
        "外"
      ],
      [
        "黑白",
        "子"
      ],
      [
        "刚",
        "才"
      ],
      [
        "半",
        "分"
      ],
      [
        "奶",
        "奶"
      ],
      [
        "年",
        "轻"
      ],
      [
        "急",
        "忙"
      ],
      [
        "晓",
        "芙"
      ],
      [
        "之",
        "色"
      ],
      [
        "客",
        "气"
      ],
      [
        "老",
        "头"
      ],
      [
        "若",
        "不是"
      ],
      [
        "还",
        "不"
      ],
      [
        "天鹰",
        "教"
      ],
      [
        "母",
        "亲"
      ],
      [
        "然",
        "道"
      ],
      [
        "玄",
        "慈"
      ],
      [
        "说",
        "是"
      ],
      [
        "德",
        "诺"
      ],
      [
        "走",
        "进"
      ],
      [
        "跟",
        "你说"
      ],
      [
        "五岳剑",
        "派"
      ],
      [
        "取",
        "出"
      ],
      [
        "叹",
        "道"
      ],
      [
        "实",
        "是"
      ],
      [
        "早",
        "就"
      ],
      [
        "正",
        "在"
      ],
      [
        "玄",
        "难"
      ],
      [
        "顷",
        "刻"
      ],
      [
        "长乐",
        "帮"
      ],
      [
        "一",
        "句"
      ],
      [
        "全",
        "然"
      ],
      [
        "发",
        "出"
      ],
      [
        "回",
        "到"
      ],
      [
        "大",
        "为"
      ],
      [
        "对",
        "手"
      ],
      [
        "颇",
        "有"
      ],
      [
        "风",
        "波"
      ],
      [
        "云中",
        "鹤"
      ],
      [
        "伸",
        "出"
      ],
      [
        "地",
        "方"
      ],
      [
        "纵",
        "身"
      ],
      [
        "而",
        "来"
      ],
      [
        "还",
        "没"
      ],
      [
        "的一声",
        "响"
      ],
      [
        "下",
        "手"
      ],
      [
        "生",
        "平"
      ],
      [
        "骂",
        "道"
      ],
      [
        "一",
        "起"
      ],
      [
        "之",
        "情"
      ],
      [
        "劳",
        "德诺"
      ],
      [
        "大吃",
        "一惊"
      ],
      [
        "他",
        "在"
      ],
      [
        "你",
        "可"
      ],
      [
        "公",
        "主"
      ],
      [
        "均",
        "想"
      ],
      [
        "天",
        "石"
      ],
      [
        "奇",
        "道"
      ],
      [
        "正",
        "要"
      ],
      [
        "着",
        "实"
      ],
      [
        "竟",
        "是"
      ],
      [
        "行",
        "礼"
      ],
      [
        "表",
        "哥"
      ],
      [
        "说",
        "过"
      ],
      [
        "不",
        "理"
      ],
      [
        "只",
        "盼"
      ],
      [
        "大",
        "惊"
      ],
      [
        "老",
        "衲"
      ],
      [
        "若",
        "不"
      ],
      [
        "规",
        "矩"
      ],
      [
        "这",
        "句话"
      ],
      [
        "司",
        "马"
      ],
      [
        "巴",
        "天石"
      ],
      [
        "磕",
        "头"
      ],
      [
        "耶",
        "律"
      ],
      [
        "这",
        "次"
      ],
      [
        "慕容",
        "公子"
      ],
      [
        "生",
        "气"
      ],
      [
        "相",
        "貌"
      ],
      [
        "等",
        "人"
      ],
      [
        "纪",
        "晓芙"
      ],
      [
        "远",
        "桥"
      ],
      [
        "之",
        "力"
      ],
      [
        "二",
        "娘"
      ],
      [
        "众",
        "弟子"
      ],
      [
        "你",
        "去"
      ],
      [
        "房",
        "中"
      ],
      [
        "毒",
        "手"
      ],
      [
        "对",
        "他"
      ],
      [
        "将",
        "她"
      ],
      [
        "教",
        "众"
      ],
      [
        "王",
        "姑娘"
      ],
      [
        "老",
        "子"
      ],
      [
        "那",
        "便"
      ],
      [
        "一",
        "块"
      ],
      [
        "乃",
        "是"
      ],
      [
        "你",
        "也"
      ],
      [
        "蓦",
        "地"
      ],
      [
        "不",
        "戒"
      ],
      [
        "从",
        "未"
      ],
      [
        "便",
        "已"
      ],
      [
        "做",
        "了"
      ],
      [
        "待",
        "得"
      ],
      [
        "该",
        "当"
      ],
      [
        "这一",
        "下"
      ],
      [
        "他",
        "二人"
      ],
      [
        "时",
        "候"
      ],
      [
        "本",
        "教"
      ],
      [
        "圣火",
        "令"
      ],
      [
        "中",
        "年"
      ],
      [
        "圆",
        "真"
      ],
      [
        "宋",
        "远桥"
      ],
      [
        "自",
        "行"
      ],
      [
        "害",
        "怕"
      ],
      [
        "甚",
        "为"
      ],
      [
        "相",
        "助"
      ],
      [
        "一",
        "眼"
      ],
      [
        "万",
        "仇"
      ],
      [
        "五",
        "人"
      ],
      [
        "而",
        "行"
      ],
      [
        "自",
        "当"
      ],
      [
        "门",
        "派"
      ],
      [
        "你",
        "别"
      ],
      [
        "出",
        "口"
      ],
      [
        "和",
        "我"
      ],
      [
        "大",
        "怒"
      ],
      [
        "未",
        "免"
      ],
      [
        "一",
        "定"
      ],
      [
        "一",
        "指"
      ],
      [
        "听",
        "她"
      ],
      [
        "幸",
        "好"
      ],
      [
        "然",
        "而"
      ],
      [
        "用",
        "力"
      ],
      [
        "那",
        "老者"
      ],
      [
        "一",
        "点"
      ],
      [
        "不",
        "但"
      ],
      [
        "他",
        "老人家"
      ],
      [
        "怎",
        "会"
      ],
      [
        "担",
        "心"
      ],
      [
        "明",
        "明"
      ],
      [
        "洪",
        "基"
      ],
      [
        "秋",
        "水"
      ],
      [
        "这",
        "番"
      ],
      [
        "钟",
        "万仇"
      ],
      [
        "鹿",
        "杖"
      ],
      [
        "丁不",
        "三"
      ],
      [
        "一",
        "张"
      ],
      [
        "也",
        "都"
      ],
      [
        "你",
        "又"
      ],
      [
        "她",
        "们"
      ],
      [
        "应",
        "道"
      ],
      [
        "得",
        "知"
      ],
      [
        "所",
        "以"
      ],
      [
        "此",
        "后"
      ],
      [
        "苦",
        "头"
      ],
      [
        "什么",
        "事"
      ],
      [
        "一",
        "样"
      ],
      [
        "丹",
        "臣"
      ],
      [
        "到",
        "他"
      ],
      [
        "叶",
        "二娘"
      ],
      [
        "颤",
        "声道"
      ],
      [
        "也不",
        "会"
      ],
      [
        "人",
        "之"
      ],
      [
        "喝",
        "酒"
      ],
      [
        "有",
        "了"
      ],
      [
        "高",
        "明"
      ],
      [
        "了",
        "下去"
      ],
      [
        "劲",
        "力"
      ],
      [
        "我",
        "在"
      ],
      [
        "无",
        "可"
      ],
      [
        "瞧",
        "去"
      ],
      [
        "了",
        "三"
      ],
      [
        "以",
        "后"
      ],
      [
        "故",
        "意"
      ],
      [
        "朗",
        "声道"
      ],
      [
        "朱",
        "丹臣"
      ],
      [
        "岳灵珊",
        "道"
      ],
      [
        "宝",
        "刀"
      ],
      [
        "害",
        "死"
      ],
      [
        "尚",
        "未"
      ],
      [
        "意",
        "思"
      ],
      [
        "打",
        "得"
      ],
      [
        "四",
        "下"
      ],
      [
        "更",
        "无"
      ],
      [
        "波",
        "斯"
      ],
      [
        "这",
        "许多"
      ],
      [
        "那",
        "可"
      ],
      [
        "仪",
        "和"
      ],
      [
        "似",
        "是"
      ],
      [
        "行",
        "事"
      ],
      [
        "要",
        "紧"
      ],
      [
        "一",
        "听"
      ],
      [
        "不",
        "久"
      ],
      [
        "便",
        "向"
      ],
      [
        "寺",
        "中"
      ],
      [
        "师",
        "兄弟"
      ],
      [
        "既",
        "然"
      ],
      [
        "朗",
        "声"
      ],
      [
        "竟",
        "然"
      ],
      [
        "罢",
        "了"
      ],
      [
        "这一",
        "次"
      ],
      [
        "风波",
        "恶"
      ],
      [
        "鹿杖",
        "客"
      ],
      [
        "九",
        "阳"
      ],
      [
        "蒙",
        "古"
      ],
      [
        "起",
        "了"
      ],
      [
        "也",
        "就"
      ],
      [
        "无",
        "量"
      ],
      [
        "本",
        "事"
      ],
      [
        "言",
        "道"
      ],
      [
        "说",
        "的"
      ],
      [
        "不",
        "上"
      ],
      [
        "令",
        "人"
      ],
      [
        "的",
        "情"
      ],
      [
        "聪",
        "明"
      ],
      [
        "便在",
        "此时"
      ],
      [
        "不",
        "绝"
      ],
      [
        "半",
        "空"
      ],
      [
        "回",
        "答"
      ],
      [
        "接",
        "过"
      ],
      [
        "放",
        "心"
      ],
      [
        "殷",
        "天"
      ],
      [
        "相",
        "距"
      ],
      [
        "阿紫",
        "道"
      ],
      [
        "伤",
        "口"
      ],
      [
        "又",
        "惊"
      ],
      [
        "尽",
        "皆"
      ],
      [
        "干",
        "净"
      ],
      [
        "是",
        "了"
      ],
      [
        "道",
        "理"
      ],
      [
        "陆",
        "大有"
      ],
      [
        "不多",
        "时"
      ],
      [
        "一",
        "一"
      ],
      [
        "到",
        "处"
      ],
      [
        "吃",
        "了"
      ],
      [
        "惊",
        "呼"
      ],
      [
        "李",
        "秋水"
      ],
      [
        "此",
        "处"
      ],
      [
        "殷天",
        "正"
      ],
      [
        "一",
        "口"
      ],
      [
        "千",
        "万"
      ],
      [
        "走",
        "近"
      ],
      [
        "不",
        "许"
      ],
      [
        "别",
        "说"
      ],
      [
        "哼",
        "了一声"
      ],
      [
        "干",
        "吗"
      ],
      [
        "快",
        "快"
      ],
      [
        "快",
        "步"
      ],
      [
        "眼",
        "中"
      ],
      [
        "种",
        "种"
      ],
      [
        "绝",
        "技"
      ],
      [
        "莫",
        "非"
      ],
      [
        "让",
        "他"
      ],
      [
        "颇",
        "为"
      ],
      [
        "太",
        "过"
      ],
      [
        "指",
        "着"
      ],
      [
        "摇",
        "了"
      ],
      [
        "显",
        "得"
      ],
      [
        "也不",
        "是"
      ],
      [
        "看",
        "得"
      ],
      [
        "要",
        "我"
      ],
      [
        "动",
        "弹"
      ],
      [
        "友",
        "谅"
      ],
      [
        "定",
        "然"
      ],
      [
        "少",
        "侠"
      ],
      [
        "若",
        "非"
      ],
      [
        "足",
        "道"
      ],
      [
        "高",
        "峰"
      ],
      [
        "高",
        "强"
      ],
      [
        "哈哈",
        "一笑"
      ],
      [
        "不",
        "定"
      ],
      [
        "但",
        "听得"
      ],
      [
        "大",
        "厅"
      ],
      [
        "小",
        "弟"
      ],
      [
        "山",
        "上"
      ],
      [
        "手",
        "足"
      ],
      [
        "明",
        "知"
      ],
      [
        "至",
        "于"
      ],
      [
        "一",
        "切"
      ],
      [
        "何",
        "处"
      ],
      [
        "大",
        "丈夫"
      ],
      [
        "姑",
        "苏"
      ],
      [
        "我",
        "就"
      ],
      [
        "神",
        "剑"
      ],
      [
        "闪",
        "避"
      ],
      [
        "陈",
        "友谅"
      ],
      [
        "丹",
        "青"
      ],
      [
        "另",
        "有"
      ],
      [
        "妻",
        "子"
      ],
      [
        "定",
        "静"
      ],
      [
        "左",
        "掌"
      ],
      [
        "倚",
        "天"
      ],
      [
        "力",
        "气"
      ],
      [
        "好",
        "手"
      ],
      [
        "将",
        "这"
      ],
      [
        "杨",
        "不悔"
      ],
      [
        "给",
        "她"
      ],
      [
        "说",
        "不得"
      ],
      [
        "银",
        "子"
      ],
      [
        "一",
        "言"
      ],
      [
        "六",
        "人"
      ],
      [
        "然",
        "后"
      ],
      [
        "真",
        "人"
      ],
      [
        "大理",
        "国"
      ],
      [
        "契丹",
        "人"
      ],
      [
        "那女",
        "童"
      ],
      [
        "一",
        "生"
      ],
      [
        "一",
        "红"
      ],
      [
        "却",
        "已"
      ],
      [
        "只",
        "因"
      ],
      [
        "朱",
        "长"
      ],
      [
        "的",
        "了"
      ],
      [
        "空",
        "智"
      ],
      [
        "而",
        "起"
      ],
      [
        "门",
        "户"
      ],
      [
        "萧峰",
        "道"
      ],
      [
        "光明",
        "顶"
      ],
      [
        "不",
        "便"
      ],
      [
        "单",
        "刀"
      ],
      [
        "又",
        "有什么"
      ],
      [
        "想",
        "来"
      ],
      [
        "想",
        "不到"
      ],
      [
        "施",
        "主"
      ],
      [
        "黑",
        "衣"
      ],
      [
        "朱长",
        "龄"
      ],
      [
        "岂",
        "能"
      ],
      [
        "手",
        "上"
      ],
      [
        "桌",
        "上"
      ],
      [
        "每",
        "一"
      ],
      [
        "祖",
        "千秋"
      ],
      [
        "身",
        "受"
      ],
      [
        "连",
        "连"
      ],
      [
        "阿朱",
        "道"
      ],
      [
        "不",
        "平"
      ],
      [
        "刀",
        "法"
      ],
      [
        "永",
        "远"
      ],
      [
        "百",
        "川"
      ],
      [
        "真",
        "正"
      ],
      [
        "赵敏",
        "道"
      ],
      [
        "耶律",
        "洪基"
      ],
      [
        "之",
        "心"
      ],
      [
        "大",
        "半"
      ],
      [
        "最",
        "好"
      ],
      [
        "灵",
        "鹫"
      ],
      [
        "脑",
        "袋"
      ],
      [
        "莫",
        "大"
      ],
      [
        "记",
        "得"
      ],
      [
        "这",
        "老"
      ],
      [
        "逃",
        "走"
      ],
      [
        "凶",
        "险"
      ],
      [
        "变",
        "化"
      ],
      [
        "呼",
        "吸"
      ],
      [
        "恭",
        "敬"
      ],
      [
        "的",
        "老"
      ],
      [
        "相",
        "见"
      ],
      [
        "脚",
        "下"
      ],
      [
        "赵",
        "钱"
      ],
      [
        "同",
        "门"
      ],
      [
        "忘",
        "了"
      ],
      [
        "比",
        "之"
      ],
      [
        "脾",
        "气"
      ],
      [
        "都",
        "已"
      ],
      [
        "盈盈",
        "道"
      ],
      [
        "五岳",
        "派"
      ],
      [
        "定",
        "要"
      ],
      [
        "山",
        "洞"
      ],
      [
        "徒",
        "儿"
      ],
      [
        "在一",
        "旁"
      ],
      [
        "赵钱",
        "孙"
      ],
      [
        "以",
        "及"
      ],
      [
        "四",
        "名"
      ],
      [
        "岂",
        "知"
      ],
      [
        "衣",
        "袖"
      ],
      [
        "英雄",
        "好汉"
      ],
      [
        "两",
        "步"
      ],
      [
        "不知",
        "如何"
      ],
      [
        "这么",
        "说"
      ],
      [
        "那人",
        "道"
      ],
      [
        "君",
        "子"
      ],
      [
        "子",
        "道"
      ],
      [
        "是",
        "不"
      ],
      [
        "木",
        "高峰"
      ],
      [
        "淡",
        "淡"
      ],
      [
        "身",
        "材"
      ],
      [
        "那",
        "女子"
      ],
      [
        "又惊",
        "又"
      ],
      [
        "丹青",
        "生"
      ],
      [
        "一",
        "场"
      ],
      [
        "中",
        "土"
      ],
      [
        "你",
        "想"
      ],
      [
        "双",
        "眼"
      ],
      [
        "当",
        "当"
      ],
      [
        "悄",
        "悄"
      ],
      [
        "抱",
        "着"
      ],
      [
        "施",
        "展"
      ],
      [
        "率",
        "领"
      ],
      [
        "破",
        "绽"
      ],
      [
        "你",
        "师父"
      ],
      [
        "便",
        "能"
      ],
      [
        "到",
        "来"
      ],
      [
        "向",
        "西"
      ],
      [
        "头",
        "发"
      ],
      [
        "岂",
        "不"
      ],
      [
        "日",
        "月"
      ],
      [
        "白",
        "自在"
      ],
      [
        "精",
        "神"
      ],
      [
        "糊",
        "涂"
      ],
      [
        "豪",
        "杰"
      ],
      [
        "遇",
        "春"
      ],
      [
        "邓",
        "百川"
      ],
      [
        "六",
        "脉"
      ],
      [
        "剑",
        "术"
      ],
      [
        "双",
        "方"
      ],
      [
        "恩",
        "师"
      ],
      [
        "数",
        "丈"
      ],
      [
        "讯",
        "息"
      ],
      [
        "遇",
        "到"
      ],
      [
        "上",
        "山"
      ],
      [
        "二",
        "哥"
      ],
      [
        "几",
        "步"
      ],
      [
        "太",
        "师父"
      ],
      [
        "已",
        "经"
      ],
      [
        "待",
        "我"
      ],
      [
        "松",
        "溪"
      ],
      [
        "而",
        "下"
      ],
      [
        "大",
        "爷"
      ],
      [
        "女",
        "弟子"
      ],
      [
        "岛",
        "上"
      ],
      [
        "常",
        "遇春"
      ],
      [
        "招",
        "式"
      ],
      [
        "空",
        "闻"
      ],
      [
        "解",
        "开"
      ],
      [
        "道",
        "长"
      ],
      [
[...]
